{
  "version": "1.0",
  "truncation": null,
  "padding": null,
  "added_tokens": [
    {
      "id": 0,
      "content": "[UNK]",
      "single_word": false,
      "lstrip": false,
      "rstrip": false,
      "normalized": false,
      "special": true
    },
    {
      "id": 1,
      "content": "[CLS]",
      "single_word": false,
      "lstrip": false,
      "rstrip": false,
      "normalized": false,
      "special": true
    },
    {
      "id": 2,
      "content": "[SEP]",
      "single_word": false,
      "lstrip": false,
      "rstrip": false,
      "normalized": false,
      "special": true
    },
    {
      "id": 3,
      "content": "[PAD]",
      "single_word": false,
      "lstrip": false,
      "rstrip": false,
      "normalized": false,
      "special": true
    },
    {
      "id": 4,
      "content": "[MASK]",
      "single_word": false,
      "lstrip": false,
      "rstrip": false,
      "normalized": false,
      "special": true
    },
    {
      "id": 5,
      "content": "__eou__",
      "single_word": false,
      "lstrip": false,
      "rstrip": false,
      "normalized": false,
      "special": true
    },
    {
      "id": 6,
      "content": "__usr__",
      "single_word": false,
      "lstrip": false,
      "rstrip": false,
      "normalized": false,
      "special": true
    },
    {
      "id": 7,
      "content": "__bot__",
      "single_word": false,
      "lstrip": false,
      "rstrip": false,
      "normalized": false,
      "special": true
    }
  ],
  "normalizer": null,
  "pre_tokenizer": {
    "type": "Whitespace"
  },
  "post_processor": null,
  "decoder": null,
  "model": {
    "type": "BPE",
    "dropout": null,
    "unk_token": null,
    "continuing_subword_prefix": null,
    "end_of_word_suffix": null,
    "fuse_unk": false,
    "byte_fallback": false,
    "ignore_merges": false,
    "vocab": {
      "[UNK]": 0,
      "[CLS]": 1,
      "[SEP]": 2,
      "[PAD]": 3,
      "[MASK]": 4,
      "__eou__": 5,
      "__usr__": 6,
      "__bot__": 7,
      "!": 8,
      "\"": 9,
      "#": 10,
      "$": 11,
      "%": 12,
      "&": 13,
      "'": 14,
      "(": 15,
      ")": 16,
      "*": 17,
      "+": 18,
      ",": 19,
      "-": 20,
      ".": 21,
      "/": 22,
      "0": 23,
      "1": 24,
      "2": 25,
      "3": 26,
      "4": 27,
      "5": 28,
      "6": 29,
      "7": 30,
      "8": 31,
      "9": 32,
      ":": 33,
      ";": 34,
      "=": 35,
      "?": 36,
      "@": 37,
      "A": 38,
      "B": 39,
      "C": 40,
      "D": 41,
      "E": 42,
      "F": 43,
      "G": 44,
      "H": 45,
      "I": 46,
      "J": 47,
      "K": 48,
      "L": 49,
      "M": 50,
      "N": 51,
      "O": 52,
      "P": 53,
      "Q": 54,
      "R": 55,
      "S": 56,
      "T": 57,
      "U": 58,
      "V": 59,
      "W": 60,
      "X": 61,
      "Y": 62,
      "Z": 63,
      "\\": 64,
      "_": 65,
      "a": 66,
      "b": 67,
      "c": 68,
      "d": 69,
      "e": 70,
      "f": 71,
      "g": 72,
      "h": 73,
      "i": 74,
      "j": 75,
      "k": 76,
      "l": 77,
      "m": 78,
      "n": 79,
      "o": 80,
      "p": 81,
      "q": 82,
      "r": 83,
      "s": 84,
      "t": 85,
      "u": 86,
      "v": 87,
      "w": 88,
      "x": 89,
      "y": 90,
      "z": 91,
      "~": 92,
      "": 93,
      "£": 94,
      "¥": 95,
      "°": 96,
      "–": 97,
      "—": 98,
      "‘": 99,
      "’": 100,
      "“": 101,
      "”": 102,
      "′": 103,
      "、": 104,
      "。": 105,
      "__": 106,
      "ou": 107,
      "eou": 108,
      "__eou": 109,
      "th": 110,
      "in": 111,
      "re": 112,
      "an": 113,
      "the": 114,
      "you": 115,
      "at": 116,
      "on": 117,
      "to": 118,
      "er": 119,
      "ll": 120,
      "or": 121,
      "me": 122,
      "ing": 123,
      "is": 124,
      "it": 125,
      "es": 126,
      "he": 127,
      "ve": 128,
      "se": 129,
      "st": 130,
      "ar": 131,
      "le": 132,
      "ow": 133,
      "ha": 134,
      "and": 135,
      "en": 136,
      "be": 137,
      "ay": 138,
      "ke": 139,
      "of": 140,
      "hat": 141,
      "for": 142,
      "oo": 143,
      "ic": 144,
      "as": 145,
      "al": 146,
      "ed": 147,
      "ld": 148,
      "we": 149,
      "all": 150,
      "have": 151,
      "wi": 152,
      "so": 153,
      "li": 154,
      "ch": 155,
      "do": 156,
      "gh": 157,
      "that": 158,
      "ut": 159,
      "et": 160,
      "ot": 161,
      "are": 162,
      "ver": 163,
      "id": 164,
      "co": 165,
      "ould": 166,
      "your": 167,
      "ri": 168,
      "ro": 169,
      "ne": 170,
      "ght": 171,
      "out": 172,
      "ti": 173,
      "ab": 174,
      "can": 175,
      "ac": 176,
      "ad": 177,
      "nt": 178,
      "ly": 179,
      "go": 180,
      "ir": 181,
      "my": 182,
      "It": 183,
      "We": 184,
      "one": 185,
      "like": 186,
      "You": 187,
      "What": 188,
      "now": 189,
      "nd": 190,
      "su": 191,
      "ter": 192,
      "The": 193,
      "with": 194,
      "ion": 195,
      "ood": 196,
      "am": 197,
      "any": 198,
      "this": 199,
      "mo": 200,
      "our": 201,
      "sh": 202,
      "ust": 203,
      "ink": 204,
      "ant": 205,
      "Yes": 206,
      "ally": 207,
      "ple": 208,
      "pe": 209,
      "some": 210,
      "ake": 211,
      "very": 212,
      "ce": 213,
      "get": 214,
      "ry": 215,
      "Th": 216,
      "thing": 217,
      "about": 218,
      "day": 219,
      "will": 220,
      "fe": 221,
      "ag": 222,
      "think": 223,
      "here": 224,
      "us": 225,
      "lo": 226,
      "wor": 227,
      "te": 228,
      "ank": 229,
      "if": 230,
      "mp": 231,
      "know": 232,
      "don": 233,
      "not": 234,
      "That": 235,
      "ther": 236,
      "He": 237,
      "time": 238,
      "but": 239,
      "How": 240,
      "see": 241,
      "ice": 242,
      "ook": 243,
      "ho": 244,
      "there": 245,
      "ur": 246,
      "was": 247,
      "ex": 248,
      "ase": 249,
      "ind": 250,
      "pp": 251,
      "de": 252,
      "ra": 253,
      "right": 254,
      "pro": 255,
      "what": 256,
      "ation": 257,
      "want": 258,
      "un": 259,
      "just": 260,
      "up": 261,
      "good": 262,
      "..": 263,
      "art": 264,
      "way": 265,
      "would": 266,
      "ment": 267,
      "per": 268,
      "Do": 269,
      "ent": 270,
      "Thank": 271,
      "pl": 272,
      "Well": 273,
      "use": 274,
      "ard": 275,
      "No": 276,
      "mu": 277,
      "ate": 278,
      "too": 279,
      "ast": 280,
      "con": 281,
      "need": 282,
      "ive": 283,
      "no": 284,
      "hi": 285,
      "work": 286,
      "qu": 287,
      "ight": 288,
      "ine": 289,
      "end": 290,
      "ill": 291,
      "Oh": 292,
      "ul": 293,
      "much": 294,
      "really": 295,
      "ong": 296,
      "ain": 297,
      "But": 298,
      "ea": 299,
      "take": 300,
      "ess": 301,
      "ure": 302,
      "po": 303,
      "ct": 304,
      "hen": 305,
      "ge": 306,
      "ak": 307,
      "going": 308,
      "ble": 309,
      "look": 310,
      "el": 311,
      "rom": 312,
      "did": 313,
      "af": 314,
      "ck": 315,
      "they": 316,
      "il": 317,
      "come": 318,
      "please": 319,
      "est": 320,
      "from": 321,
      "ound": 322,
      "hel": 323,
      "res": 324,
      "ack": 325,
      "ame": 326,
      "should": 327,
      "ye": 328,
      "help": 329,
      "comp": 330,
      "ning": 331,
      "ig": 332,
      "ort": 333,
      "hy": 334,
      "ite": 335,
      "jo": 336,
      "more": 337,
      "got": 338,
      "mor": 339,
      "off": 340,
      "red": 341,
      "tion": 342,
      "tr": 343,
      "new": 344,
      "reat": 345,
      "them": 346,
      "how": 347,
      "other": 348,
      "che": 349,
      "ave": 350,
      "And": 351,
      "sp": 352,
      "been": 353,
      "So": 354,
      "Can": 355,
      "ers": 356,
      "cou": 357,
      "ree": 358,
      "able": 359,
      "ity": 360,
      "Is": 361,
      "bo": 362,
      "make": 363,
      "part": 364,
      "by": 365,
      "ish": 366,
      "oom": 367,
      "mb": 368,
      "pr": 369,
      "could": 370,
      "OK": 371,
      "own": 372,
      "over": 373,
      "eve": 374,
      "bu": 375,
      "com": 376,
      "tw": 377,
      "sure": 378,
      "fo": 379,
      "ople": 380,
      "...": 381,
      "pre": 382,
      "has": 383,
      "act": 384,
      "read": 385,
      "room": 386,
      "rest": 387,
      "ars": 388,
      "ie": 389,
      "when": 390,
      "ek": 391,
      "ist": 392,
      "si": 393,
      "Let": 394,
      "her": 395,
      "lot": 396,
      "call": 397,
      "ous": 398,
      "ty": 399,
      "bus": 400,
      "cl": 401,
      "man": 402,
      "ep": 403,
      "week": 404,
      "people": 405,
      "orry": 406,
      "ci": 407,
      "every": 408,
      "tell": 409,
      "00": 410,
      "let": 411,
      "spe": 412,
      "then": 413,
      "gu": 414,
      "ass": 415,
      "age": 416,
      "count": 417,
      "well": 418,
      "May": 419,
      "irst": 420,
      "Good": 421,
      "ough": 422,
      "she": 423,
      "ick": 424,
      "av": 425,
      "bet": 426,
      "long": 427,
      "back": 428,
      "had": 429,
      "der": 430,
      "after": 431,
      "ca": 432,
      "They": 433,
      "great": 434,
      "row": 435,
      "und": 436,
      "cour": 437,
      "My": 438,
      "sir": 439,
      "say": 440,
      "Are": 441,
      "lf": 442,
      "give": 443,
      "ma": 444,
      "does": 445,
      "blem": 446,
      "If": 447,
      "Why": 448,
      "problem": 449,
      "ies": 450,
      "Ch": 451,
      "ide": 452,
      "him": 453,
      "app": 454,
      "br": 455,
      "won": 456,
      "eah": 457,
      "sto": 458,
      "This": 459,
      "ten": 460,
      "fore": 461,
      "two": 462,
      "Mr": 463,
      "Here": 464,
      "mber": 465,
      "There": 466,
      "job": 467,
      "tra": 468,
      "chan": 469,
      "today": 470,
      "gl": 471,
      "first": 472,
      "tle": 473,
      "min": 474,
      "only": 475,
      "pay": 476,
      "sa": 477,
      "ket": 478,
      "ace": 479,
      "something": 480,
      "mon": 481,
      "try": 482,
      "ary": 483,
      "ich": 484,
      "gr": 485,
      "many": 486,
      "kind": 487,
      "course": 488,
      "sit": 489,
      "company": 490,
      "alk": 491,
      "xt": 492,
      "sorry": 493,
      "ud": 494,
      "Yeah": 495,
      "find": 496,
      "Thanks": 497,
      "feel": 498,
      "fri": 499,
      "most": 500,
      "Ok": 501,
      "oney": 502,
      "lit": 503,
      "Sure": 504,
      "ater": 505,
      "morning": 506,
      "his": 507,
      "last": 508,
      "better": 509,
      "ving": 510,
      "ser": 511,
      "happ": 512,
      "du": 513,
      "meet": 514,
      "ans": 515,
      "anything": 516,
      "Have": 517,
      "also": 518,
      "next": 519,
      "ool": 520,
      "ose": 521,
      "buy": 522,
      "yes": 523,
      "pen": 524,
      "didn": 525,
      "were": 526,
      "mer": 527,
      "Would": 528,
      "where": 529,
      "ways": 530,
      "down": 531,
      "car": 532,
      "ance": 533,
      "love": 534,
      "ms": 535,
      "ought": 536,
      "who": 537,
      "clo": 538,
      "ting": 539,
      "Don": 540,
      "must": 541,
      "than": 542,
      "fin": 543,
      "ked": 544,
      "ready": 545,
      "cause": 546,
      "inter": 547,
      "check": 548,
      "little": 549,
      "wr": 550,
      "mar": 551,
      "ait": 552,
      "may": 553,
      "before": 554,
      "di": 555,
      "ign": 556,
      "atch": 557,
      "ounds": 558,
      "Chin": 559,
      "friend": 560,
      "bl": 561,
      "llo": 562,
      "hich": 563,
      "name": 564,
      "air": 565,
      "inte": 566,
      "ise": 567,
      "imp": 568,
      "nice": 569,
      "nu": 570,
      "always": 571,
      "start": 572,
      "money": 573,
      "ful": 574,
      "interest": 575,
      "urn": 576,
      "int": 577,
      "vie": 578,
      "ese": 579,
      "home": 580,
      "She": 581,
      "month": 582,
      "play": 583,
      "ade": 584,
      "rent": 585,
      "tor": 586,
      "again": 587,
      "Ve": 588,
      "Hello": 589,
      "ress": 590,
      "thank": 591,
      "morrow": 592,
      "things": 593,
      "son": 594,
      "ask": 595,
      "dif": 596,
      "self": 597,
      "days": 598,
      "ert": 599,
      "When": 600,
      "put": 601,
      "ue": 602,
      "minut": 603,
      "aking": 604,
      "Where": 605,
      "night": 606,
      "Did": 607,
      "All": 608,
      "lease": 609,
      "Ex": 610,
      "form": 611,
      "ang": 612,
      "mean": 613,
      "Re": 614,
      "still": 615,
      "tomorrow": 616,
      "ach": 617,
      "these": 618,
      "ner": 619,
      "dis": 620,
      "Could": 621,
      "stand": 622,
      "cor": 623,
      "dr": 624,
      "mind": 625,
      "year": 626,
      "few": 627,
      "ren": 628,
      "fic": 629,
      "hard": 630,
      "Please": 631,
      "wait": 632,
      "never": 633,
      "ven": 634,
      "Hi": 635,
      "food": 636,
      "hour": 637,
      "idea": 638,
      "ph": 639,
      "into": 640,
      "En": 641,
      "la": 642,
      "An": 643,
      "Just": 644,
      "care": 645,
      "ever": 646,
      "their": 647,
      "under": 648,
      "In": 649,
      "show": 650,
      "ton": 651,
      "class": 652,
      "ss": 653,
      "Of": 654,
      "keep": 655,
      "lu": 656,
      "ip": 657,
      "mis": 658,
      "card": 659,
      "ouse": 660,
      "Then": 661,
      "best": 662,
      "light": 663,
      "doing": 664,
      "Co": 665,
      "sho": 666,
      "Not": 667,
      "lear": 668,
      "Be": 669,
      "why": 670,
      "bad": 671,
      "talk": 672,
      "big": 673,
      "ction": 674,
      "bit": 675,
      "iness": 676,
      "change": 677,
      "book": 678,
      "three": 679,
      "sch": 680,
      "plan": 681,
      "im": 682,
      "stud": 683,
      "because": 684,
      "ily": 685,
      "turn": 686,
      "hope": 687,
      "fine": 688,
      "eat": 689,
      "To": 690,
      "else": 691,
      "sal": 692,
      "tri": 693,
      "years": 694,
      "ild": 695,
      "ious": 696,
      "around": 697,
      "Engl": 698,
      "old": 699,
      "partment": 700,
      "gg": 701,
      "cuse": 702,
      "raid": 703,
      "pa": 704,
      "afraid": 705,
      "late": 706,
      "ru": 707,
      "office": 708,
      "quite": 709,
      "fam": 710,
      "ence": 711,
      "school": 712,
      "ually": 713,
      "looking": 714,
      "hand": 715,
      "house": 716,
      "place": 717,
      "ps": 718,
      "lic": 719,
      "doll": 720,
      "ail": 721,
      "posit": 722,
      "hot": 723,
      "fer": 724,
      "times": 725,
      "made": 726,
      "working": 727,
      "set": 728,
      "vis": 729,
      "order": 730,
      "noon": 731,
      "Maybe": 732,
      "number": 733,
      "ear": 734,
      "business": 735,
      "English": 736,
      "ves": 737,
      "cial": 738,
      "stay": 739,
      "high": 740,
      "sounds": 741,
      "supp": 742,
      "diffe": 743,
      "cent": 744,
      "iz": 745,
      "les": 746,
      "soon": 747,
      "vice": 748,
      "ash": 749,
      "joy": 750,
      "ather": 751,
      "sm": 752,
      "happen": 753,
      "ertain": 754,
      "Excuse": 755,
      "ark": 756,
      "usu": 757,
      "price": 758,
      "ull": 759,
      "Really": 760,
      "drink": 761,
      "thought": 762,
      "Now": 763,
      "isn": 764,
      "afternoon": 765,
      "wonder": 766,
      "char": 767,
      "ft": 768,
      "sur": 769,
      "side": 770,
      "Chinese": 771,
      "eas": 772,
      "doesn": 773,
      "another": 774,
      "mat": 775,
      "cond": 776,
      "even": 777,
      "view": 778,
      "ap": 779,
      "phone": 780,
      "said": 781,
      "same": 782,
      "des": 783,
      "minutes": 784,
      "person": 785,
      "hile": 786,
      "din": 787,
      "tic": 788,
      "its": 789,
      "watch": 790,
      "bre": 791,
      "enjoy": 792,
      "line": 793,
      "which": 794,
      "haven": 795,
      "lieve": 796,
      "hear": 797,
      "lcome": 798,
      "dri": 799,
      "ations": 800,
      "dollars": 801,
      "might": 802,
      "such": 803,
      "each": 804,
      "account": 805,
      "low": 806,
      "dec": 807,
      "peri": 808,
      "sed": 809,
      "bab": 810,
      "sha": 811,
      "table": 812,
      "ated": 813,
      "import": 814,
      "akes": 815,
      "ef": 816,
      "estion": 817,
      "heard": 818,
      "member": 819,
      "cre": 820,
      "everything": 821,
      "sk": 822,
      "while": 823,
      "leave": 824,
      "sing": 825,
      "cus": 826,
      "tty": 827,
      "done": 828,
      "head": 829,
      "produ": 830,
      "live": 831,
      "ertainly": 832,
      "fi": 833,
      "cle": 834,
      "bring": 835,
      "ition": 836,
      "um": 837,
      "10": 838,
      "already": 839,
      "Your": 840,
      "coming": 841,
      "guess": 842,
      "yet": 843,
      "ticket": 844,
      "pt": 845,
      "ste": 846,
      "enough": 847,
      "getting": 848,
      "rough": 849,
      "lle": 850,
      "oh": 851,
      "Okay": 852,
      "usually": 853,
      "dy": 854,
      "ee": 855,
      "believe": 856,
      "port": 857,
      "vers": 858,
      "train": 859,
      "ular": 860,
      "list": 861,
      "Any": 862,
      "aut": 863,
      "ts": 864,
      "different": 865,
      "ding": 866,
      "inv": 867,
      "comput": 868,
      "five": 869,
      "tonight": 870,
      "mi": 871,
      "used": 872,
      "hed": 873,
      "gir": 874,
      "free": 875,
      "Will": 876,
      "important": 877,
      "pretty": 878,
      "ctor": 879,
      "fect": 880,
      "fun": 881,
      "pare": 882,
      "run": 883,
      "looks": 884,
      "worry": 885,
      "open": 886,
      "full": 887,
      "those": 888,
      "vel": 889,
      "als": 890,
      "sport": 891,
      "cy": 892,
      "later": 893,
      "understand": 894,
      "wrong": 895,
      "sible": 896,
      "happy": 897,
      "meeting": 898,
      "fee": 899,
      "beaut": 900,
      "away": 901,
      "cess": 902,
      "rece": 903,
      "mm": 904,
      "reg": 905,
      "sent": 906,
      "speak": 907,
      "cost": 908,
      "through": 909,
      "cont": 910,
      "dinner": 911,
      "ason": 912,
      "Hey": 913,
      "ments": 914,
      "offer": 915,
      "friends": 916,
      "thanks": 917,
      "sign": 918,
      "uan": 919,
      "add": 920,
      "bro": 921,
      "send": 922,
      "ward": 923,
      "cho": 924,
      "rid": 925,
      "often": 926,
      "ical": 927,
      "pect": 928,
      "special": 929,
      "Al": 930,
      "Some": 931,
      "left": 932,
      "agree": 933,
      "For": 934,
      "pens": 935,
      "bed": 936,
      "lor": 937,
      "Look": 938,
      "fast": 939,
      "je": 940,
      "market": 941,
      "small": 942,
      "colle": 943,
      "gether": 944,
      "party": 945,
      "Amer": 946,
      "inform": 947,
      "together": 948,
      "evening": 949,
      "Americ": 950,
      "moment": 951,
      "ta": 952,
      "men": 953,
      "question": 954,
      "real": 955,
      "med": 956,
      "learn": 957,
      "ok": 958,
      "ried": 959,
      "city": 960,
      "iting": 961,
      "Sorry": 962,
      "child": 963,
      "service": 964,
      "computer": 965,
      "less": 966,
      "easy": 967,
      "beautif": 968,
      "cur": 969,
      "fill": 970,
      "ery": 971,
      "experi": 972,
      "family": 973,
      "ob": 974,
      "reser": 975,
      "ities": 976,
      "Which": 977,
      "Great": 978,
      "expens": 979,
      "seems": 980,
      "lar": 981,
      "ult": 982,
      "ince": 983,
      "hours": 984,
      "beautiful": 985,
      "ces": 986,
      "far": 987,
      "went": 988,
      "Mo": 989,
      "miss": 990,
      "move": 991,
      "country": 992,
      "ball": 993,
      "weekend": 994,
      "ouble": 995,
      "suppose": 996,
      "break": 997,
      "St": 998,
      "mus": 999,
      "having": 1000,
      "remember": 1001,
      "str": 1002,
      "pos": 1003,
      "Who": 1004,
      "interested": 1005,
      "kid": 1006,
      "glad": 1007,
      "Come": 1008,
      "bor": 1009,
      "welcome": 1010,
      "yourself": 1011,
      "aur": 1012,
      "nts": 1013,
      "mail": 1014,
      "told": 1015,
      "bably": 1016,
      "prefer": 1017,
      "life": 1018,
      "mplo": 1019,
      "walk": 1020,
      "China": 1021,
      "au": 1022,
      "avor": 1023,
      "cred": 1024,
      "ship": 1025,
      "til": 1026,
      "king": 1027,
      "true": 1028,
      "ze": 1029,
      "game": 1030,
      "stop": 1031,
      "interview": 1032,
      "seat": 1033,
      "qual": 1034,
      "wo": 1035,
      "ited": 1036,
      "offee": 1037,
      "cut": 1038,
      "information": 1039,
      "ices": 1040,
      "pping": 1041,
      "four": 1042,
      "teach": 1043,
      "water": 1044,
      "led": 1045,
      "expensive": 1046,
      "20": 1047,
      "alth": 1048,
      "interesting": 1049,
      "unch": 1050,
      "Wow": 1051,
      "ivers": 1052,
      "world": 1053,
      "aurant": 1054,
      "ict": 1055,
      "myself": 1056,
      "someone": 1057,
      "ager": 1058,
      "apartment": 1059,
      "bag": 1060,
      "luck": 1061,
      "Joh": 1062,
      "ng": 1063,
      "ount": 1064,
      "movie": 1065,
      "girl": 1066,
      "John": 1067,
      "product": 1068,
      "being": 1069,
      "until": 1070,
      "body": 1071,
      "top": 1072,
      "bank": 1073,
      "nothing": 1074,
      "net": 1075,
      "ago": 1076,
      "ating": 1077,
      "ath": 1078,
      "coffee": 1079,
      "terday": 1080,
      "study": 1081,
      "matter": 1082,
      "fr": 1083,
      "cell": 1084,
      "expect": 1085,
      "busy": 1086,
      "pu": 1087,
      "ient": 1088,
      "Does": 1089,
      "Ne": 1090,
      "thir": 1091,
      "att": 1092,
      "spend": 1093,
      "music": 1094,
      "30": 1095,
      "case": 1096,
      "cept": 1097,
      "ries": 1098,
      "flight": 1099,
      "pick": 1100,
      "See": 1101,
      "favor": 1102,
      "cha": 1103,
      "second": 1104,
      "thinking": 1105,
      "both": 1106,
      "restaurant": 1107,
      "000": 1108,
      "guy": 1109,
      "bir": 1110,
      "oint": 1111,
      "ings": 1112,
      "ian": 1113,
      "qui": 1114,
      "actually": 1115,
      "experience": 1116,
      "50": 1117,
      "By": 1118,
      "reet": 1119,
      "probably": 1120,
      "position": 1121,
      "pri": 1122,
      "ates": 1123,
      "half": 1124,
      "seen": 1125,
      "wear": 1126,
      "suit": 1127,
      "sle": 1128,
      "bye": 1129,
      "mach": 1130,
      "exam": 1131,
      "clock": 1132,
      "ran": 1133,
      "atur": 1134,
      "yesterday": 1135,
      "Mary": 1136,
      "smo": 1137,
      "Certainly": 1138,
      "paper": 1139,
      "charge": 1140,
      "na": 1141,
      "possible": 1142,
      "pres": 1143,
      "ages": 1144,
      "cri": 1145,
      "Act": 1146,
      "Every": 1147,
      "pleas": 1148,
      "rain": 1149,
      "As": 1150,
      "sol": 1151,
      "near": 1152,
      "maybe": 1153,
      "called": 1154,
      "hotel": 1155,
      "found": 1156,
      "wife": 1157,
      "Actually": 1158,
      "though": 1159,
      "beg": 1160,
      "sugg": 1161,
      "actly": 1162,
      "appoint": 1163,
      "trip": 1164,
      "iversity": 1165,
      "Our": 1166,
      "yuan": 1167,
      "terri": 1168,
      "happened": 1169,
      "cu": 1170,
      "gy": 1171,
      "ia": 1172,
      "emplo": 1173,
      "mend": 1174,
      "weather": 1175,
      "cold": 1176,
      "sub": 1177,
      "deal": 1178,
      "minute": 1179,
      "fil": 1180,
      "thes": 1181,
      "ished": 1182,
      "bill": 1183,
      "cook": 1184,
      "llow": 1185,
      "health": 1186,
      "taking": 1187,
      "war": 1188,
      "doctor": 1189,
      "color": 1190,
      "ele": 1191,
      "ides": 1192,
      "cam": 1193,
      "hur": 1194,
      "sen": 1195,
      "reserv": 1196,
      "credit": 1197,
      "ones": 1198,
      "sever": 1199,
      "almost": 1200,
      "prom": 1201,
      "ational": 1202,
      "boss": 1203,
      "six": 1204,
      "Un": 1205,
      "az": 1206,
      "pass": 1207,
      "ters": 1208,
      "manager": 1209,
      "Fine": 1210,
      "ai": 1211,
      "gen": 1212,
      "par": 1213,
      "pas": 1214,
      "clean": 1215,
      "Li": 1216,
      "commend": 1217,
      "cer": 1218,
      "val": 1219,
      "aren": 1220,
      "sum": 1221,
      "Smi": 1222,
      "ds": 1223,
      "lat": 1224,
      "ption": 1225,
      "calling": 1226,
      "avail": 1227,
      "New": 1228,
      "band": 1229,
      "weeks": 1230,
      "department": 1231,
      "bought": 1232,
      "reason": 1233,
      "travel": 1234,
      "fre": 1235,
      "park": 1236,
      "recommend": 1237,
      "Smith": 1238,
      "On": 1239,
      "date": 1240,
      "wish": 1241,
      "erc": 1242,
      "present": 1243,
      "Go": 1244,
      "reci": 1245,
      "sell": 1246,
      "clothes": 1247,
      "several": 1248,
      "jing": 1249,
      "parents": 1250,
      "incl": 1251,
      "loc": 1252,
      "wanted": 1253,
      "perfect": 1254,
      "serious": 1255,
      "Right": 1256,
      "exc": 1257,
      "trans": 1258,
      "Mon": 1259,
      "main": 1260,
      "ny": 1261,
      "rect": 1262,
      "birth": 1263,
      "cr": 1264,
      "wn": 1265,
      "short": 1266,
      "ject": 1267,
      "pie": 1268,
      "ines": 1269,
      "available": 1270,
      "tory": 1271,
      "ved": 1272,
      "gram": 1273,
      "ither": 1274,
      "sy": 1275,
      "once": 1276,
      "hold": 1277,
      "cash": 1278,
      "custo": 1279,
      "hu": 1280,
      "pain": 1281,
      "since": 1282,
      "oose": 1283,
      "ures": 1284,
      "comes": 1285,
      "vac": 1286,
      "team": 1287,
      "fac": 1288,
      "wind": 1289,
      "exerc": 1290,
      "ents": 1291,
      "sales": 1292,
      "pon": 1293,
      "key": 1294,
      "lost": 1295,
      "tract": 1296,
      "TV": 1297,
      "early": 1298,
      "Frid": 1299,
      "came": 1300,
      "pack": 1301,
      "sou": 1302,
      "tea": 1303,
      "news": 1304,
      "reservation": 1305,
      "Friday": 1306,
      "ced": 1307,
      "ring": 1308,
      "iss": 1309,
      "uring": 1310,
      "rather": 1311,
      "pop": 1312,
      "large": 1313,
      "ics": 1314,
      "At": 1315,
      "One": 1316,
      "tour": 1317,
      "ided": 1318,
      "cons": 1319,
      "started": 1320,
      "children": 1321,
      "cli": 1322,
      "dress": 1323,
      "ger": 1324,
      "ijing": 1325,
      "conf": 1326,
      "Beijing": 1327,
      "tive": 1328,
      "saw": 1329,
      "married": 1330,
      "trying": 1331,
      "talking": 1332,
      "Sh": 1333,
      "fit": 1334,
      "lunch": 1335,
      "makes": 1336,
      "road": 1337,
      "aper": 1338,
      "hite": 1339,
      "diffic": 1340,
      "begin": 1341,
      "ff": 1342,
      "point": 1343,
      "hair": 1344,
      "size": 1345,
      "appreci": 1346,
      "grad": 1347,
      "months": 1348,
      "Tom": 1349,
      "swe": 1350,
      "resu": 1351,
      "everyone": 1352,
      "shopping": 1353,
      "dra": 1354,
      "flo": 1355,
      "ork": 1356,
      "making": 1357,
      "enter": 1358,
      "ident": 1359,
      "wouldn": 1360,
      "visit": 1361,
      "sleep": 1362,
      "mit": 1363,
      "problems": 1364,
      "Ab": 1365,
      "lan": 1366,
      "mil": 1367,
      "test": 1368,
      "took": 1369,
      "write": 1370,
      "ize": 1371,
      "hon": 1372,
      "tast": 1373,
      "tired": 1374,
      "adam": 1375,
      "young": 1376,
      "boy": 1377,
      "birthday": 1378,
      "return": 1379,
      "arri": 1380,
      "deposit": 1381,
      "products": 1382,
      "det": 1383,
      "Af": 1384,
      "De": 1385,
      "Take": 1386,
      "stu": 1387,
      "appointment": 1388,
      "15": 1389,
      "mas": 1390,
      "mother": 1391,
      "store": 1392,
      "wonderful": 1393,
      "ital": 1394,
      "summer": 1395,
      "After": 1396,
      "aw": 1397,
      "tot": 1398,
      "town": 1399,
      "couldn": 1400,
      "books": 1401,
      "pleasure": 1402,
      "program": 1403,
      "Very": 1404,
      "without": 1405,
      "quick": 1406,
      "comple": 1407,
      "undred": 1408,
      "least": 1409,
      "haps": 1410,
      "along": 1411,
      "ider": 1412,
      "exactly": 1413,
      "cially": 1414,
      "solut": 1415,
      "hundred": 1416,
      "ont": 1417,
      "board": 1418,
      "sty": 1419,
      "street": 1420,
      "ext": 1421,
      "says": 1422,
      "bar": 1423,
      "ses": 1424,
      "favorite": 1425,
      "floor": 1426,
      "seem": 1427,
      "Sounds": 1428,
      "ooked": 1429,
      "choose": 1430,
      "trouble": 1431,
      "prof": 1432,
      "build": 1433,
      "chance": 1434,
      "zy": 1435,
      "door": 1436,
      "tax": 1437,
      "bas": 1438,
      "ted": 1439,
      "report": 1440,
      "wasn": 1441,
      "couple": 1442,
      "drive": 1443,
      "12": 1444,
      "respon": 1445,
      "Per": 1446,
      "accept": 1447,
      "waiting": 1448,
      "appreciate": 1449,
      "rate": 1450,
      "living": 1451,
      "ility": 1452,
      "listen": 1453,
      "Miss": 1454,
      "land": 1455,
      "national": 1456,
      "ately": 1457,
      "consider": 1458,
      "pict": 1459,
      "sometimes": 1460,
      "box": 1461,
      "cas": 1462,
      "face": 1463,
      "ues": 1464,
      "oot": 1465,
      "ions": 1466,
      "whole": 1467,
      "surance": 1468,
      "fully": 1469,
      "First": 1470,
      "during": 1471,
      "rel": 1472,
      "leav": 1473,
      "ote": 1474,
      "Te": 1475,
      "bi": 1476,
      "fact": 1477,
      "seven": 1478,
      "weight": 1479,
      "allow": 1480,
      "post": 1481,
      "ju": 1482,
      "sche": 1483,
      "conven": 1484,
      "contract": 1485,
      "feeling": 1486,
      "finite": 1487,
      "rence": 1488,
      "cellent": 1489,
      "chang": 1490,
      "exercise": 1491,
      "IB": 1492,
      "reen": 1493,
      "met": 1494,
      "questions": 1495,
      "fif": 1496,
      "ins": 1497,
      "forward": 1498,
      "shall": 1499,
      "Satur": 1500,
      "bot": 1501,
      "catch": 1502,
      "ator": 1503,
      "Me": 1504,
      "whe": 1505,
      "ister": 1506,
      "American": 1507,
      "supposed": 1508,
      "ffic": 1509,
      "ness": 1510,
      "pur": 1511,
      "sick": 1512,
      "forget": 1513,
      "speaking": 1514,
      "condition": 1515,
      "vacation": 1516,
      "Br": 1517,
      "worked": 1518,
      "university": 1519,
      "decided": 1520,
      "receive": 1521,
      "difficult": 1522,
      "cup": 1523,
      "certainly": 1524,
      "insurance": 1525,
      "hall": 1526,
      "either": 1527,
      "esides": 1528,
      "personal": 1529,
      "lt": 1530,
      "past": 1531,
      "means": 1532,
      "mess": 1533,
      "goes": 1534,
      "Chr": 1535,
      "shop": 1536,
      "vo": 1537,
      "letter": 1538,
      "jor": 1539,
      "pair": 1540,
      "icken": 1541,
      "apply": 1542,
      "foreign": 1543,
      "tried": 1544,
      "langu": 1545,
      "father": 1546,
      "gi": 1547,
      "stra": 1548,
      "rooms": 1549,
      "salary": 1550,
      "thirty": 1551,
      "includ": 1552,
      "arch": 1553,
      "dep": 1554,
      "major": 1555,
      "Saturday": 1556,
      "Bye": 1557,
      "vide": 1558,
      "sale": 1559,
      "quality": 1560,
      "teacher": 1561,
      "gradu": 1562,
      "Ro": 1563,
      "ween": 1564,
      "ends": 1565,
      "employe": 1566,
      "por": 1567,
      "ature": 1568,
      "needs": 1569,
      "suggest": 1570,
      "cra": 1571,
      "dish": 1572,
      "igh": 1573,
      "paid": 1574,
      "Anything": 1575,
      "college": 1576,
      "terrible": 1577,
      "Int": 1578,
      "hus": 1579,
      "espe": 1580,
      "finished": 1581,
      "machine": 1582,
      "range": 1583,
      "husband": 1584,
      "ial": 1585,
      "recent": 1586,
      "follow": 1587,
      "Because": 1588,
      "Sir": 1589,
      "eng": 1590,
      "asked": 1591,
      "cop": 1592,
      "solute": 1593,
      "sun": 1594,
      "extra": 1595,
      "between": 1596,
      "finitely": 1597,
      "ahead": 1598,
      "hate": 1599,
      "pract": 1600,
      "discus": 1601,
      "window": 1602,
      "popular": 1603,
      "opp": 1604,
      "vir": 1605,
      "forgot": 1606,
      "adv": 1607,
      "pped": 1608,
      "enty": 1609,
      "twenty": 1610,
      "Wait": 1611,
      "aken": 1612,
      "join": 1613,
      "traffic": 1614,
      "smoking": 1615,
      "fl": 1616,
      "fall": 1617,
      "fish": 1618,
      "gs": 1619,
      "holi": 1620,
      "close": 1621,
      "finish": 1622,
      "front": 1623,
      "schedu": 1624,
      "ping": 1625,
      "outside": 1626,
      "partic": 1627,
      "attend": 1628,
      "100": 1629,
      "lose": 1630,
      "io": 1631,
      "swi": 1632,
      "astic": 1633,
      "kids": 1634,
      "especially": 1635,
      "solutely": 1636,
      "cool": 1637,
      "eight": 1638,
      "yeah": 1639,
      "fort": 1640,
      "tele": 1641,
      "cks": 1642,
      "Nice": 1643,
      "dance": 1644,
      "rela": 1645,
      "relax": 1646,
      "pan": 1647,
      "wine": 1648,
      "medi": 1649,
      "deli": 1650,
      "prepare": 1651,
      "Ste": 1652,
      "foot": 1653,
      "ling": 1654,
      "pho": 1655,
      "suc": 1656,
      "anyway": 1657,
      "receip": 1658,
      "mine": 1659,
      "sof": 1660,
      "inst": 1661,
      "fresh": 1662,
      "fa": 1663,
      "gif": 1664,
      "taken": 1665,
      "vert": 1666,
      "using": 1667,
      "plac": 1668,
      "pol": 1669,
      "ousand": 1670,
      "type": 1671,
      "stead": 1672,
      "ls": 1673,
      "chicken": 1674,
      "reading": 1675,
      "kinds": 1676,
      "Alright": 1677,
      "publ": 1678,
      "200": 1679,
      "Jan": 1680,
      "mag": 1681,
      "pet": 1682,
      "Welcome": 1683,
      "draw": 1684,
      "Bob": 1685,
      "vies": 1686,
      "online": 1687,
      "gets": 1688,
      "teen": 1689,
      "black": 1690,
      "law": 1691,
      "fix": 1692,
      "gra": 1693,
      "org": 1694,
      "log": 1695,
      "ortun": 1696,
      "syste": 1697,
      "stuff": 1698,
      "kit": 1699,
      "movies": 1700,
      "fair": 1701,
      "os": 1702,
      "winter": 1703,
      "exp": 1704,
      "tickets": 1705,
      "Inter": 1706,
      "clear": 1707,
      "ual": 1708,
      "veget": 1709,
      "transfer": 1710,
      "Tell": 1711,
      "York": 1712,
      "flow": 1713,
      "takes": 1714,
      "uc": 1715,
      "ield": 1716,
      "decis": 1717,
      "brother": 1718,
      "fig": 1719,
      "thousand": 1720,
      "docu": 1721,
      "excellent": 1722,
      "Jack": 1723,
      "ier": 1724,
      "une": 1725,
      "wed": 1726,
      "velo": 1727,
      "nty": 1728,
      "single": 1729,
      "address": 1730,
      "okay": 1731,
      "Monday": 1732,
      "ied": 1733,
      "treat": 1734,
      "cover": 1735,
      "worth": 1736,
      "playing": 1737,
      "America": 1738,
      "passport": 1739,
      "style": 1740,
      "sc": 1741,
      "ude": 1742,
      "tern": 1743,
      "seeing": 1744,
      "Christ": 1745,
      "chen": 1746,
      "ili": 1747,
      "kes": 1748,
      "save": 1749,
      "white": 1750,
      "ross": 1751,
      "super": 1752,
      "ulations": 1753,
      "design": 1754,
      "choice": 1755,
      "honest": 1756,
      "eyes": 1757,
      "sound": 1758,
      "arm": 1759,
      "gener": 1760,
      "receipt": 1761,
      "Ah": 1762,
      "RIB": 1763,
      "Tr": 1764,
      "dro": 1765,
      "wan": 1766,
      "station": 1767,
      "ables": 1768,
      "advert": 1769,
      "temp": 1770,
      "goods": 1771,
      "shoes": 1772,
      "lucky": 1773,
      "ub": 1774,
      "tific": 1775,
      "manage": 1776,
      "tention": 1777,
      "sports": 1778,
      "complete": 1779,
      "gar": 1780,
      "ith": 1781,
      "ills": 1782,
      "watching": 1783,
      "building": 1784,
      "photo": 1785,
      "sort": 1786,
      "amount": 1787,
      "project": 1788,
      "Sometimes": 1789,
      "discuss": 1790,
      "kitchen": 1791,
      "Besides": 1792,
      "bath": 1793,
      "madam": 1794,
      "ties": 1795,
      "irm": 1796,
      "ific": 1797,
      "wash": 1798,
      "planning": 1799,
      "Mom": 1800,
      "About": 1801,
      "total": 1802,
      "convenient": 1803,
      "recently": 1804,
      "Ac": 1805,
      "mid": 1806,
      "requi": 1807,
      "become": 1808,
      "irt": 1809,
      "training": 1810,
      "medic": 1811,
      "da": 1812,
      "double": 1813,
      "gent": 1814,
      "lad": 1815,
      "ons": 1816,
      "discount": 1817,
      "famous": 1818,
      "Perhaps": 1819,
      "gone": 1820,
      "ken": 1821,
      "var": 1822,
      "instead": 1823,
      "ref": 1824,
      "anyone": 1825,
      "fash": 1826,
      "eter": 1827,
      "advice": 1828,
      "countries": 1829,
      "cording": 1830,
      "surpr": 1831,
      "system": 1832,
      "Ho": 1833,
      "wants": 1834,
      "cono": 1835,
      "others": 1836,
      "applic": 1837,
      "detail": 1838,
      "leaving": 1839,
      "success": 1840,
      "field": 1841,
      "hit": 1842,
      "len": 1843,
      "definitely": 1844,
      "sib": 1845,
      "25": 1846,
      "Pe": 1847,
      "round": 1848,
      "ouch": 1849,
      "lovely": 1850,
      "breakfast": 1851,
      "kidding": 1852,
      "Lon": 1853,
      "Shall": 1854,
      "nor": 1855,
      "sister": 1856,
      "area": 1857,
      "handle": 1858,
      "ountain": 1859,
      "straight": 1860,
      "schedule": 1861,
      "London": 1862,
      "Ms": 1863,
      "ber": 1864,
      "cing": 1865,
      "sat": 1866,
      "internet": 1867,
      "running": 1868,
      "mention": 1869,
      "employees": 1870,
      "public": 1871,
      "wedding": 1872,
      "Christmas": 1873,
      "fashion": 1874,
      "Dad": 1875,
      "With": 1876,
      "ben": 1877,
      "ol": 1878,
      "pot": 1879,
      "ford": 1880,
      "ants": 1881,
      "baby": 1882,
      "taste": 1883,
      "opportun": 1884,
      "decision": 1885,
      "dan": 1886,
      "step": 1887,
      "Comp": 1888,
      "sense": 1889,
      "piece": 1890,
      "pin": 1891,
      "lead": 1892,
      "ety": 1893,
      "develo": 1894,
      "aff": 1895,
      "compan": 1896,
      "local": 1897,
      "Bo": 1898,
      "cat": 1899,
      "fru": 1900,
      "ising": 1901,
      "uture": 1902,
      "neigh": 1903,
      "exciting": 1904,
      "soup": 1905,
      "whether": 1906,
      "language": 1907,
      "od": 1908,
      "recor": 1909,
      "tru": 1910,
      "answ": 1911,
      "intro": 1912,
      "cret": 1913,
      "holiday": 1914,
      "hor": 1915,
      "search": 1916,
      "ster": 1917,
      "These": 1918,
      "perfor": 1919,
      "spaper": 1920,
      "comfor": 1921,
      "lots": 1922,
      "ground": 1923,
      "wondering": 1924,
      "profess": 1925,
      "particular": 1926,
      "US": 1927,
      "mple": 1928,
      "word": 1929,
      "Mrs": 1930,
      "desk": 1931,
      "Jim": 1932,
      "future": 1933,
      "wall": 1934,
      "newspaper": 1935,
      "strong": 1936,
      "film": 1937,
      "comfortable": 1938,
      "heav": 1939,
      "shouldn": 1940,
      "payment": 1941,
      "student": 1942,
      "contact": 1943,
      "crazy": 1944,
      "places": 1945,
      "Tai": 1946,
      "ung": 1947,
      "ressed": 1948,
      "trad": 1949,
      "bal": 1950,
      "phy": 1951,
      "educ": 1952,
      "riend": 1953,
      "necess": 1954,
      "exchange": 1955,
      "plain": 1956,
      "plans": 1957,
      "warm": 1958,
      "camer": 1959,
      "companies": 1960,
      "oper": 1961,
      "ric": 1962,
      "action": 1963,
      "plenty": 1964,
      "spital": 1965,
      "rench": 1966,
      "decide": 1967,
      "cription": 1968,
      "promise": 1969,
      "gift": 1970,
      "grow": 1971,
      "sli": 1972,
      "cel": 1973,
      "brary": 1974,
      "dire": 1975,
      "direct": 1976,
      "careful": 1977,
      "promot": 1978,
      "Hmm": 1979,
      "furn": 1980,
      "ral": 1981,
      "meat": 1982,
      "heart": 1983,
      "secret": 1984,
      "comm": 1985,
      "longer": 1986,
      "lugg": 1987,
      "depends": 1988,
      "organ": 1989,
      "Bill": 1990,
      "song": 1991,
      "stick": 1992,
      "icy": 1993,
      "vern": 1994,
      "dear": 1995,
      "afford": 1996,
      "blue": 1997,
      "mming": 1998,
      "aught": 1999,
      "games": 2000,
      "hang": 2001,
      "ative": 2002,
      "attention": 2003,
      "erature": 2004,
      "staff": 2005,
      "tech": 2006,
      "percent": 2007,
      "polic": 2008,
      "prices": 2009,
      "counter": 2010,
      "writing": 2011,
      "regular": 2012,
      "People": 2013,
      "win": 2014,
      "library": 2015,
      "amaz": 2016,
      "Goodbye": 2017,
      "brand": 2018,
      "serv": 2019,
      "Mi": 2020,
      "green": 2021,
      "touch": 2022,
      "arrange": 2023,
      "web": 2024,
      "carry": 2025,
      "driving": 2026,
      "Most": 2027,
      "elect": 2028,
      "performan": 2029,
      "luggage": 2030,
      "Mar": 2031,
      "ah": 2032,
      "dam": 2033,
      "fly": 2034,
      "hai": 2035,
      "hospital": 2036,
      "compet": 2037,
      "guest": 2038,
      "plane": 2039,
      "French": 2040,
      "Ke": 2041,
      "eye": 2042,
      "pes": 2043,
      "delic": 2044,
      "current": 2045,
      "taxi": 2046,
      "police": 2047,
      "magaz": 2048,
      "introdu": 2049,
      "11": 2050,
      "40": 2051,
      "worried": 2052,
      "works": 2053,
      "que": 2054,
      "cards": 2055,
      "apan": 2056,
      "girlf": 2057,
      "studying": 2058,
      "guys": 2059,
      "Fr": 2060,
      "Two": 2061,
      "ctive": 2062,
      "vate": 2063,
      "atulations": 2064,
      "meal": 2065,
      "govern": 2066,
      "Nothing": 2067,
      "students": 2068,
      "eating": 2069,
      "example": 2070,
      "satis": 2071,
      "Dav": 2072,
      "Get": 2073,
      "Japan": 2074,
      "den": 2075,
      "egg": 2076,
      "hind": 2077,
      "match": 2078,
      "pat": 2079,
      "ught": 2080,
      "beer": 2081,
      "mode": 2082,
      "ched": 2083,
      "itional": 2084,
      "picture": 2085,
      "application": 2086,
      "amazing": 2087,
      "girlfriend": 2088,
      "Sund": 2089,
      "mers": 2090,
      "excited": 2091,
      "quickly": 2092,
      "medicine": 2093,
      "answer": 2094,
      "Sunday": 2095,
      "19": 2096,
      "Give": 2097,
      "gain": 2098,
      "tain": 2099,
      "envir": 2100,
      "dog": 2101,
      "final": 2102,
      "asking": 2103,
      "Anyway": 2104,
      "hurry": 2105,
      "resume": 2106,
      "football": 2107,
      "heavy": 2108,
      "ID": 2109,
      "bur": 2110,
      "cked": 2111,
      "roll": 2112,
      "ney": 2113,
      "aged": 2114,
      "assist": 2115,
      "glass": 2116,
      "grand": 2117,
      "diet": 2118,
      "ctions": 2119,
      "difference": 2120,
      "message": 2121,
      "ised": 2122,
      "behind": 2123,
      "deg": 2124,
      "impro": 2125,
      "correct": 2126,
      "classes": 2127,
      "bedroom": 2128,
      "healthy": 2129,
      "environ": 2130,
      "blo": 2131,
      "sight": 2132,
      "site": 2133,
      "lie": 2134,
      "simple": 2135,
      "saying": 2136,
      "history": 2137,
      "learned": 2138,
      "quiet": 2139,
      "Everything": 2140,
      "develop": 2141,
      "dist": 2142,
      "daught": 2143,
      "words": 2144,
      "notice": 2145,
      "cheap": 2146,
      "buying": 2147,
      "mission": 2148,
      "latest": 2149,
      "environment": 2150,
      "Many": 2151,
      "Next": 2152,
      "Tues": 2153,
      "dre": 2154,
      "flu": 2155,
      "ior": 2156,
      "knew": 2157,
      "sand": 2158,
      "lent": 2159,
      "compl": 2160,
      "stock": 2161,
      "swimming": 2162,
      "vegetables": 2163,
      "figure": 2164,
      "details": 2165,
      "necessary": 2166,
      "performance": 2167,
      "Che": 2168,
      "Wang": 2169,
      "base": 2170,
      "gas": 2171,
      "ange": 2172,
      "ically": 2173,
      "ability": 2174,
      "cannot": 2175,
      "provide": 2176,
      "conne": 2177,
      "blood": 2178,
      "higher": 2179,
      "enjoyed": 2180,
      "cream": 2181,
      "Ju": 2182,
      "econo": 2183,
      "ica": 2184,
      "acc": 2185,
      "mum": 2186,
      "aster": 2187,
      "print": 2188,
      "club": 2189,
      "airport": 2190,
      "suggestion": 2191,
      "copy": 2192,
      "Mike": 2193,
      "government": 2194,
      "mate": 2195,
      "sel": 2196,
      "season": 2197,
      "star": 2198,
      "ense": 2199,
      "absolutely": 2200,
      "load": 2201,
      "finally": 2202,
      "rush": 2203,
      "girls": 2204,
      "cooking": 2205,
      "neighbor": 2206,
      "Jo": 2207,
      "ded": 2208,
      "ned": 2209,
      "outh": 2210,
      "ret": 2211,
      "ener": 2212,
      "within": 2213,
      "anger": 2214,
      "corner": 2215,
      "skin": 2216,
      "contin": 2217,
      "woman": 2218,
      "received": 2219,
      "Tuesday": 2220,
      "18": 2221,
      "Hot": 2222,
      "fur": 2223,
      "gave": 2224,
      "inside": 2225,
      "proper": 2226,
      "space": 2227,
      "learning": 2228,
      "happens": 2229,
      "mill": 2230,
      "mountain": 2231,
      "nine": 2232,
      "ride": 2233,
      "iced": 2234,
      "tiv": 2235,
      "ilities": 2236,
      "costs": 2237,
      "David": 2238,
      "cake": 2239,
      "mater": 2240,
      "oc": 2241,
      "slow": 2242,
      "lier": 2243,
      "mom": 2244,
      "mbers": 2245,
      "skills": 2246,
      "Gr": 2247,
      "lay": 2248,
      "oud": 2249,
      "ina": 2250,
      "anim": 2251,
      "lect": 2252,
      "spot": 2253,
      "telling": 2254,
      "package": 2255,
      "Company": 2256,
      "daughter": 2257,
      "selves": 2258,
      "Se": 2259,
      "itor": 2260,
      "ks": 2261,
      "nic": 2262,
      "section": 2263,
      "enti": 2264,
      "beach": 2265,
      "active": 2266,
      "anymore": 2267,
      "given": 2268,
      "appro": 2269,
      "famili": 2270,
      "charg": 2271,
      "driver": 2272,
      "private": 2273,
      "customers": 2274,
      "Steven": 2275,
      "fruit": 2276,
      "Lu": 2277,
      "dry": 2278,
      "opin": 2279,
      "pounds": 2280,
      "vous": 2281,
      "issu": 2282,
      "yours": 2283,
      "shirt": 2284,
      "quit": 2285,
      "Isn": 2286,
      "jobs": 2287,
      "employ": 2288,
      "sav": 2289,
      "incre": 2290,
      "state": 2291,
      "lies": 2292,
      "rol": 2293,
      "ache": 2294,
      "somewhere": 2295,
      "cheaper": 2296,
      "writ": 2297,
      "nervous": 2298,
      "invest": 2299,
      "Internet": 2300,
      "benef": 2301,
      "Dan": 2302,
      "gage": 2303,
      "leg": 2304,
      "items": 2305,
      "spent": 2306,
      "impress": 2307,
      "usual": 2308,
      "parking": 2309,
      "dle": 2310,
      "lack": 2311,
      "menu": 2312,
      "ower": 2313,
      "ional": 2314,
      "antastic": 2315,
      "ongr": 2316,
      "brought": 2317,
      "against": 2318,
      "University": 2319,
      "factory": 2320,
      "flowers": 2321,
      "completely": 2322,
      "Congr": 2323,
      "Pro": 2324,
      "booked": 2325,
      "cert": 2326,
      "kill": 2327,
      "sci": 2328,
      "uce": 2329,
      "ond": 2330,
      "stea": 2331,
      "icle": 2332,
      "quar": 2333,
      "overtime": 2334,
      "lately": 2335,
      "cribe": 2336,
      "sweet": 2337,
      "relation": 2338,
      "dishes": 2339,
      "documents": 2340,
      "require": 2341,
      "delicious": 2342,
      "accident": 2343,
      "Hotel": 2344,
      "500": 2345,
      "Sus": 2346,
      "mist": 2347,
      "non": 2348,
      "ug": 2349,
      "vid": 2350,
      "itch": 2351,
      "loan": 2352,
      "explain": 2353,
      "trade": 2354,
      "speed": 2355,
      "courses": 2356,
      "choco": 2357,
      "practice": 2358,
      "policy": 2359,
      "lts": 2360,
      "mic": 2361,
      "mes": 2362,
      "beef": 2363,
      "willing": 2364,
      "third": 2365,
      "gym": 2366,
      "customer": 2367,
      "delivery": 2368,
      "commun": 2369,
      "--": 2370,
      "Lo": 2371,
      "cand": 2372,
      "cars": 2373,
      "snow": 2374,
      "likes": 2375,
      "Those": 2376,
      "international": 2377,
      "salad": 2378,
      "period": 2379,
      "regis": 2380,
      "giving": 2381,
      "telephone": 2382,
      "Day": 2383,
      "Wor": 2384,
      "apo": 2385,
      "fat": 2386,
      "liked": 2387,
      "indust": 2388,
      "checking": 2389,
      "Brown": 2390,
      "further": 2391,
      "Susan": 2392,
      "bon": 2393,
      "fu": 2394,
      "honey": 2395,
      "ible": 2396,
      "squ": 2397,
      "according": 2398,
      "terms": 2399,
      "concert": 2400,
      "anghai": 2401,
      "drinks": 2402,
      "pressure": 2403,
      "milk": 2404,
      "Jane": 2405,
      "management": 2406,
      "improve": 2407,
      "Bank": 2408,
      "Peter": 2409,
      "logy": 2410,
      "vision": 2411,
      "cents": 2412,
      "broke": 2413,
      "moved": 2414,
      "subway": 2415,
      "Taiwan": 2416,
      "camera": 2417,
      "Mic": 2418,
      "ki": 2419,
      "uro": 2420,
      "zen": 2421,
      "onna": 2422,
      "vered": 2423,
      "stress": 2424,
      "wel": 2425,
      "covered": 2426,
      "twice": 2427,
      "cap": 2428,
      "changed": 2429,
      "fortun": 2430,
      "Congratulations": 2431,
      "16": 2432,
      "Jen": 2433,
      "Make": 2434,
      "ile": 2435,
      "ming": 2436,
      "sme": 2437,
      "wise": 2438,
      "lebr": 2439,
      "withdraw": 2440,
      "celebr": 2441,
      "grou": 2442,
      "share": 2443,
      "effect": 2444,
      "God": 2445,
      "results": 2446,
      "dream": 2447,
      "jam": 2448,
      "pull": 2449,
      "rees": 2450,
      "nel": 2451,
      "process": 2452,
      "ideas": 2453,
      "paying": 2454,
      "Didn": 2455,
      "immedi": 2456,
      "pictures": 2457,
      "bottle": 2458,
      "opportunity": 2459,
      "His": 2460,
      "Po": 2461,
      "remind": 2462,
      "charac": 2463,
      "appe": 2464,
      "hurt": 2465,
      "middle": 2466,
      "services": 2467,
      "complain": 2468,
      "13": 2469,
      "dut": 2470,
      "equ": 2471,
      "gonna": 2472,
      "sil": 2473,
      "reli": 2474,
      "ann": 2475,
      "iture": 2476,
      "esti": 2477,
      "dead": 2478,
      "tran": 2479,
      "story": 2480,
      "finan": 2481,
      "broken": 2482,
      "Should": 2483,
      "arrive": 2484,
      "juice": 2485,
      "fifteen": 2486,
      "soft": 2487,
      "truth": 2488,
      "Mark": 2489,
      "Park": 2490,
      "White": 2491,
      "eed": 2492,
      "natur": 2493,
      "spo": 2494,
      "tall": 2495,
      "za": 2496,
      "nose": 2497,
      "player": 2498,
      "earlier": 2499,
      "fire": 2500,
      "funny": 2501,
      "control": 2502,
      "Only": 2503,
      "Or": 2504,
      "hung": 2505,
      "vious": 2506,
      "alone": 2507,
      "sold": 2508,
      "coat": 2509,
      "worse": 2510,
      "note": 2511,
      "urs": 2512,
      "poll": 2513,
      "checked": 2514,
      "borrow": 2515,
      "reasonable": 2516,
      "Par": 2517,
      "dess": 2518,
      "ience": 2519,
      "nis": 2520,
      "pic": 2521,
      "rad": 2522,
      "tom": 2523,
      "alright": 2524,
      "aret": 2525,
      "sometime": 2526,
      "ference": 2527,
      "raise": 2528,
      "arden": 2529,
      "hibit": 2530,
      "div": 2531,
      "turned": 2532,
      "dollar": 2533,
      "collect": 2534,
      "record": 2535,
      "opinion": 2536,
      "relationship": 2537,
      "Gu": 2538,
      "Pa": 2539,
      "dark": 2540,
      "gest": 2541,
      "throw": 2542,
      "tered": 2543,
      "keeping": 2544,
      "support": 2545,
      "Shanghai": 2546,
      "jump": 2547,
      "chocolate": 2548,
      "dessert": 2549,
      "Man": 2550,
      "Room": 2551,
      "Um": 2552,
      "flat": 2553,
      "imum": 2554,
      "abroad": 2555,
      "activ": 2556,
      "except": 2557,
      "unk": 2558,
      "due": 2559,
      "airs": 2560,
      "career": 2561,
      "mistake": 2562,
      "hands": 2563,
      "colleag": 2564,
      "Street": 2565,
      "boring": 2566,
      "bags": 2567,
      "beginning": 2568,
      "Last": 2569,
      "Oly": 2570,
      "Yuan": 2571,
      "crow": 2572,
      "fund": 2573,
      "fantastic": 2574,
      "ives": 2575,
      "sn": 2576,
      "uation": 2577,
      "oun": 2578,
      "responsib": 2579,
      "education": 2580,
      "furniture": 2581,
      "Olymp": 2582,
      "Madam": 2583,
      "Since": 2584,
      "certain": 2585,
      "wood": 2586,
      "ancy": 2587,
      "moving": 2588,
      "illy": 2589,
      "trust": 2590,
      "ized": 2591,
      "smart": 2592,
      "lower": 2593,
      "wards": 2594,
      "subject": 2595,
      "fault": 2596,
      "drop": 2597,
      "temperature": 2598,
      "promotion": 2599,
      "Green": 2600,
      "chat": 2601,
      "cal": 2602,
      "press": 2603,
      "sco": 2604,
      "ors": 2605,
      "estern": 2606,
      "level": 2607,
      "ency": 2608,
      "kept": 2609,
      "Thurs": 2610,
      "knows": 2611,
      "tennis": 2612,
      "imag": 2613,
      "license": 2614,
      "settle": 2615,
      "staying": 2616,
      "fifty": 2617,
      "degree": 2618,
      "hungry": 2619,
      "24": 2620,
      "Fo": 2621,
      "Hu": 2622,
      "fight": 2623,
      "lines": 2624,
      "oil": 2625,
      "va": 2626,
      "vin": 2627,
      "memor": 2628,
      "stairs": 2629,
      "ays": 2630,
      "acket": 2631,
      "guar": 2632,
      "invol": 2633,
      "agreement": 2634,
      "expected": 2635,
      "Everyone": 2636,
      "responsible": 2637,
      "increase": 2638,
      "Aust": 2639,
      "Even": 2640,
      "Euro": 2641,
      "Lin": 2642,
      "Pr": 2643,
      "Su": 2644,
      "bother": 2645,
      "hood": 2646,
      "pity": 2647,
      "scre": 2648,
      "tur": 2649,
      "ination": 2650,
      "inspe": 2651,
      "ilt": 2652,
      "offic": 2653,
      "spare": 2654,
      "common": 2655,
      "avo": 2656,
      "marketing": 2657,
      "confirm": 2658,
      "purcha": 2659,
      "conditions": 2660,
      "dancing": 2661,
      "introduce": 2662,
      "kilo": 2663,
      "fortunately": 2664,
      "80": 2665,
      "Ti": 2666,
      "bread": 2667,
      "rout": 2668,
      "forty": 2669,
      "ooper": 2670,
      "anywhere": 2671,
      "ified": 2672,
      "concer": 2673,
      "spring": 2674,
      "erson": 2675,
      "serve": 2676,
      "Remember": 2677,
      "easier": 2678,
      "invite": 2679,
      "seats": 2680,
      "camp": 2681,
      "Like": 2682,
      "boxes": 2683,
      "prepared": 2684,
      "traditional": 2685,
      "Car": 2686,
      "Never": 2687,
      "cig": 2688,
      "cult": 2689,
      "iver": 2690,
      "looked": 2691,
      "ris": 2692,
      "research": 2693,
      "meters": 2694,
      "till": 2695,
      "knowled": 2696,
      "missed": 2697,
      "States": 2698,
      "prescription": 2699,
      "graduate": 2700,
      "fax": 2701,
      "advertise": 2702,
      "Paul": 2703,
      "60": 2704,
      "Happ": 2705,
      "Ma": 2706,
      "jour": 2707,
      "tomat": 2708,
      "ules": 2709,
      "tration": 2710,
      "ists": 2711,
      "safe": 2712,
      "Exactly": 2713,
      "standard": 2714,
      "easily": 2715,
      "shipment": 2716,
      "baggage": 2717,
      "chall": 2718,
      "allowed": 2719,
      "tificate": 2720,
      "professional": 2721,
      "Thursday": 2722,
      "Happy": 2723,
      "Uh": 2724,
      "nes": 2725,
      "tend": 2726,
      "anti": 2727,
      "neck": 2728,
      "tie": 2729,
      "However": 2730,
      "urgent": 2731,
      "spicy": 2732,
      "lights": 2733,
      "Today": 2734,
      "fied": 2735,
      "born": 2736,
      "passed": 2737,
      "miles": 2738,
      "included": 2739,
      "scen": 2740,
      "bathroom": 2741,
      "norm": 2742,
      "apolog": 2743,
      "smell": 2744,
      "Ad": 2745,
      "bow": 2746,
      "cast": 2747,
      "fare": 2748,
      "hous": 2749,
      "oub": 2750,
      "ances": 2751,
      "sea": 2752,
      "lex": 2753,
      "alked": 2754,
      "Ital": 2755,
      "Three": 2756,
      "known": 2757,
      "propo": 2758,
      "ames": 2759,
      "bud": 2760,
      "calls": 2761,
      "caught": 2762,
      "marri": 2763,
      "starting": 2764,
      "women": 2765,
      "including": 2766,
      "website": 2767,
      "immediately": 2768,
      "guarant": 2769,
      "Con": 2770,
      "Honey": 2771,
      "bid": 2772,
      "center": 2773,
      "garden": 2774,
      "tough": 2775,
      "wast": 2776,
      "attr": 2777,
      "seme": 2778,
      "tight": 2779,
      "rap": 2780,
      "perhaps": 2781,
      "needed": 2782,
      "everybody": 2783,
      "pril": 2784,
      "express": 2785,
      "washing": 2786,
      "Hope": 2787,
      "financial": 2788,
      "Austral": 2789,
      "Hong": 2790,
      "Wed": 2791,
      "creat": 2792,
      "ders": 2793,
      "ials": 2794,
      "rich": 2795,
      "vent": 2796,
      "habit": 2797,
      "built": 2798,
      "shows": 2799,
      "drinking": 2800,
      "Also": 2801,
      "walking": 2802,
      "pleasant": 2803,
      "instru": 2804,
      "semester": 2805,
      "45": 2806,
      "Ha": 2807,
      "Rob": 2808,
      "email": 2809,
      "pm": 2810,
      "sw": 2811,
      "dozen": 2812,
      "motor": 2813,
      "hob": 2814,
      "exhibit": 2815,
      "spec": 2816,
      "played": 2817,
      "computers": 2818,
      "pieces": 2819,
      "gives": 2820,
      "deliver": 2821,
      "various": 2822,
      "eggs": 2823,
      "animals": 2824,
      "familiar": 2825,
      "17": 2826,
      "April": 2827,
      "Ind": 2828,
      "Say": 2829,
      "danger": 2830,
      "power": 2831,
      "ys": 2832,
      "col": 2833,
      "irts": 2834,
      "hoping": 2835,
      "simp": 2836,
      "stor": 2837,
      "homework": 2838,
      "formal": 2839,
      "visa": 2840,
      "expecting": 2841,
      "include": 2842,
      "totally": 2843,
      "engine": 2844,
      "successful": 2845,
      "secretary": 2846,
      "guests": 2847,
      "industry": 2848,
      "bonus": 2849,
      "transport": 2850,
      "natural": 2851,
      "colleagues": 2852,
      "Wednes": 2853,
      "Air": 2854,
      "Cor": 2855,
      "XX": 2856,
      "dest": 2857,
      "doub": 2858,
      "nut": 2859,
      "rules": 2860,
      "seas": 2861,
      "suits": 2862,
      "term": 2863,
      "dered": 2864,
      "decl": 2865,
      "deep": 2866,
      "useful": 2867,
      "stories": 2868,
      "fried": 2869,
      "monthly": 2870,
      "standing": 2871,
      "faster": 2872,
      "experien": 2873,
      "reserve": 2874,
      "clients": 2875,
      "general": 2876,
      "benefits": 2877,
      "divor": 2878,
      "Wednesday": 2879,
      "Ar": 2880,
      "Bar": 2881,
      "From": 2882,
      "Qu": 2883,
      "Was": 2884,
      "dad": 2885,
      "pool": 2886,
      "yo": 2887,
      "meals": 2888,
      "beat": 2889,
      "weak": 2890,
      "lives": 2891,
      "adays": 2892,
      "whatever": 2893,
      "ples": 2894,
      "cheese": 2895,
      "hasn": 2896,
      "friendly": 2897,
      "nights": 2898,
      "laund": 2899,
      "earth": 2900,
      "izza": 2901,
      "deser": 2902,
      "ski": 2903,
      "gency": 2904,
      "traveling": 2905,
      "sweater": 2906,
      "basket": 2907,
      "advance": 2908,
      "surprised": 2909,
      "issue": 2910,
      "written": 2911,
      "purchase": 2912,
      "Ger": 2913,
      "Mmm": 2914,
      "Ser": 2915,
      "ni": 2916,
      "ped": 2917,
      "ror": 2918,
      "rice": 2919,
      "thor": 2920,
      "cancel": 2921,
      "felt": 2922,
      "noticed": 2923,
      "export": 2924,
      "upset": 2925,
      "consu": 2926,
      "helpful": 2927,
      "tens": 2928,
      "sitting": 2929,
      "Absolutely": 2930,
      "bottom": 2931,
      "advant": 2932,
      "Keep": 2933,
      "300": 2934,
      "Won": 2935,
      "fice": 2936,
      "firm": 2937,
      "lab": 2938,
      "mand": 2939,
      "option": 2940,
      "vot": 2941,
      "wake": 2942,
      "ying": 2943,
      "reme": 2944,
      "parts": 2945,
      "stores": 2946,
      "keeps": 2947,
      "shape": 2948,
      "mploy": 2949,
      "smoke": 2950,
      "colors": 2951,
      "painting": 2952,
      "magazine": 2953,
      "cigaret": 2954,
      "knowledge": 2955,
      "apologize": 2956,
      "marriage": 2957,
      "laundry": 2958,
      "14": 2959,
      "55": 2960,
      "Dr": 2961,
      "bat": 2962,
      "cab": 2963,
      "cooper": 2964,
      "ix": 2965,
      "mood": 2966,
      "lly": 2967,
      "arr": 2968,
      "ooth": 2969,
      "decor": 2970,
      "tooth": 2971,
      "ended": 2972,
      "prote": 2973,
      "appet": 2974,
      "United": 2975,
      "climb": 2976,
      "video": 2977,
      "group": 2978,
      "duty": 2979,
      "Har": 2980,
      "Mac": 2981,
      "Pre": 2982,
      "aim": 2983,
      "cable": 2984,
      "lin": 2985,
      "wich": 2986,
      "reach": 2987,
      "negot": 2988,
      "among": 2989,
      "fever": 2990,
      "poor": 2991,
      "guide": 2992,
      "situation": 2993,
      "impressed": 2994,
      "starts": 2995,
      "bigger": 2996,
      "films": 2997,
      "human": 2998,
      "graph": 2999,
      "organiz": 3000,
      "assistant": 3001,
      "communic": 3002,
      "Europe": 3003,
      "mployment": 3004,
      "negoti": 3005,
      "Sar": 3006,
      "Try": 3007,
      "fing": 3008,
      "rant": 3009,
      "tail": 3010,
      "erry": 3011,
      "itude": 3012,
      "stru": 3013,
      "excuse": 3014,
      "promis": 3015,
      "upid": 3016,
      "tware": 3017,
      "describe": 3018,
      "invited": 3019,
      "understanding": 3020,
      "wearing": 3021,
      "arrived": 3022,
      "programs": 3023,
      "document": 3024,
      "Account": 3025,
      "equip": 3026,
      "Bet": 3027,
      "bri": 3028,
      "mouth": 3029,
      "reti": 3030,
      "vell": 3031,
      "ley": 3032,
      "dogs": 3033,
      "cock": 3034,
      "aker": 3035,
      "finding": 3036,
      "Ann": 3037,
      "file": 3038,
      "cleaning": 3039,
      "cases": 3040,
      "leaves": 3041,
      "estival": 3042,
      "activities": 3043,
      "doubt": 3044,
      "bly": 3045,
      "cir": 3046,
      "scare": 3047,
      "ato": 3048,
      "orig": 3049,
      "lend": 3050,
      "owe": 3051,
      "forms": 3052,
      "ali": 3053,
      "ads": 3054,
      "delive": 3055,
      "commission": 3056,
      "rency": 3057,
      "Office": 3058,
      "headache": 3059,
      "push": 3060,
      "value": 3061,
      "bike": 3062,
      "changes": 3063,
      "graduated": 3064,
      "swim": 3065,
      "Japanese": 3066,
      "suggestions": 3067,
      "continue": 3068,
      "Jenny": 3069,
      "radio": 3070,
      "campus": 3071,
      "delivered": 3072,
      "90": 3073,
      "Black": 3074,
      "Mor": 3075,
      "bright": 3076,
      "emer": 3077,
      "ush": 3078,
      "atched": 3079,
      "ises": 3080,
      "held": 3081,
      "vey": 3082,
      "amb": 3083,
      "moder": 3084,
      "loves": 3085,
      "useum": 3086,
      "track": 3087,
      "himself": 3088,
      "stomach": 3089,
      "achi": 3090,
      "older": 3091,
      "visiting": 3092,
      "nearly": 3093,
      "huh": 3094,
      "listening": 3095,
      "software": 3096,
      "wanna": 3097,
      "photos": 3098,
      "pollut": 3099,
      "avoid": 3100,
      "waste": 3101,
      "Her": 3102,
      "ron": 3103,
      "umb": 3104,
      "anch": 3105,
      "arling": 3106,
      "shot": 3107,
      "fell": 3108,
      "respect": 3109,
      "helping": 3110,
      "everyday": 3111,
      "appli": 3112,
      "angry": 3113,
      "foods": 3114,
      "shower": 3115,
      "mix": 3116,
      "suitable": 3117,
      "model": 3118,
      "steak": 3119,
      "screen": 3120,
      "simply": 3121,
      "origin": 3122,
      "achieve": 3123,
      "Rich": 3124,
      "Span": 3125,
      "cot": 3126,
      "dig": 3127,
      "eth": 3128,
      "fai": 3129,
      "sca": 3130,
      "vote": 3131,
      "heat": 3132,
      "stam": 3133,
      "bell": 3134,
      "across": 3135,
      "button": 3136,
      "pper": 3137,
      "cted": 3138,
      "helps": 3139,
      "branch": 3140,
      "corpor": 3141,
      "production": 3142,
      "hurts": 3143,
      "boyfriend": 3144,
      "television": 3145,
      "supermarket": 3146,
      "advertising": 3147,
      "refund": 3148,
      "science": 3149,
      "guarantee": 3150,
      "Spanish": 3151,
      "mall": 3152,
      "page": 3153,
      "review": 3154,
      "itation": 3155,
      "secur": 3156,
      "code": 3157,
      "Doctor": 3158,
      "hire": 3159,
      "complic": 3160,
      "Canad": 3161,
      "everywhere": 3162,
      "downtown": 3163,
      "numbers": 3164,
      "stayed": 3165,
      "opening": 3166,
      "strict": 3167,
      "machines": 3168,
      "located": 3169,
      "Monica": 3170,
      "crit": 3171,
      "paint": 3172,
      "medium": 3173,
      "fixed": 3174,
      "vari": 3175,
      "phys": 3176,
      "savings": 3177,
      "celebrate": 3178,
      "imagine": 3179,
      "Australia": 3180,
      "specific": 3181,
      "23": 3182,
      "PC": 3183,
      "Year": 3184,
      "cart": 3185,
      "ire": 3186,
      "nal": 3187,
      "sam": 3188,
      "saf": 3189,
      "tu": 3190,
      "tree": 3191,
      "repair": 3192,
      "leep": 3193,
      "fees": 3194,
      "feet": 3195,
      "text": 3196,
      "ently": 3197,
      "mostly": 3198,
      "carpet": 3199,
      "harder": 3200,
      "ashing": 3201,
      "currency": 3202,
      "champ": 3203,
      "Once": 3204,
      "huge": 3205,
      "surprise": 3206,
      "director": 3207,
      "materials": 3208,
      "involved": 3209,
      "attractive": 3210,
      "dangerous": 3211,
      "Ge": 3212,
      "Hold": 3213,
      "pizza": 3214,
      "rup": 3215,
      "requ": 3216,
      "ony": 3217,
      "ordered": 3218,
      "stupid": 3219,
      "ham": 3220,
      "wide": 3221,
      "lim": 3222,
      "Whatever": 3223,
      "sugar": 3224,
      "mobi": 3225,
      "Tho": 3226,
      "urch": 3227,
      "workers": 3228,
      "quet": 3229,
      "buses": 3230,
      "closed": 3231,
      "effic": 3232,
      "nearby": 3233,
      "selling": 3234,
      "points": 3235,
      "balance": 3236,
      "directly": 3237,
      "damage": 3238,
      "magazines": 3239,
      "sandwich": 3240,
      "crowded": 3241,
      "Prof": 3242,
      "mobile": 3243,
      "Fin": 3244,
      "List": 3245,
      "ban": 3246,
      "emp": 3247,
      "ome": 3248,
      "ths": 3249,
      "annu": 3250,
      "meas": 3251,
      "ens": 3252,
      "bear": 3253,
      "roses": 3254,
      "plastic": 3255,
      "noise": 3256,
      "claim": 3257,
      "letters": 3258,
      "background": 3259,
      "sauce": 3260,
      "lap": 3261,
      "carefully": 3262,
      "Tomorrow": 3263,
      "schools": 3264,
      "languages": 3265,
      "daily": 3266,
      "economy": 3267,
      "million": 3268,
      "square": 3269,
      "retire": 3270,
      "Cl": 3271,
      "Got": 3272,
      "Other": 3273,
      "Person": 3274,
      "Ta": 3275,
      "cto": 3276,
      "cket": 3277,
      "cross": 3278,
      "gn": 3279,
      "iel": 3280,
      "loud": 3281,
      "rew": 3282,
      "ering": 3283,
      "hael": 3284,
      "ared": 3285,
      "nowadays": 3286,
      "conference": 3287,
      "helped": 3288,
      "spir": 3289,
      "sheet": 3290,
      "brown": 3291,
      "minimum": 3292,
      "tors": 3293,
      "biggest": 3294,
      "smaller": 3295,
      "strange": 3296,
      "certificate": 3297,
      "bargain": 3298,
      "lady": 3299,
      "electric": 3300,
      "Paris": 3301,
      "challeng": 3302,
      "Italian": 3303,
      "budget": 3304,
      "basketball": 3305,
      "scared": 3306,
      "complicated": 3307,
      "Le": 3308,
      "Nor": 3309,
      "ais": 3310,
      "aud": 3311,
      "gate": 3312,
      "ners": 3313,
      "silly": 3314,
      "tes": 3315,
      "watched": 3316,
      "eous": 3317,
      "reed": 3318,
      "orders": 3319,
      "venu": 3320,
      "soci": 3321,
      "limit": 3322,
      "rible": 3323,
      "rob": 3324,
      "ourselves": 3325,
      "ify": 3326,
      "inda": 3327,
      "delay": 3328,
      "hill": 3329,
      "simil": 3330,
      "feels": 3331,
      "More": 3332,
      "possib": 3333,
      "pressed": 3334,
      "bills": 3335,
      "valu": 3336,
      "keys": 3337,
      "packing": 3338,
      "mitted": 3339,
      "voice": 3340,
      "impression": 3341,
      "quarter": 3342,
      "inspection": 3343,
      "security": 3344,
      "Listen": 3345,
      "similar": 3346,
      "Bus": 3347,
      "Kong": 3348,
      "Sand": 3349,
      "Sep": 3350,
      "cru": 3351,
      "om": 3352,
      "rare": 3353,
      "zer": 3354,
      "toast": 3355,
      "alo": 3356,
      "social": 3357,
      "lia": 3358,
      "idence": 3359,
      "tery": 3360,
      "shar": 3361,
      "prov": 3362,
      "marry": 3363,
      "aches": 3364,
      "hardly": 3365,
      "produce": 3366,
      "regard": 3367,
      "cute": 3368,
      "solve": 3369,
      "files": 3370,
      "elev": 3371,
      "unemployment": 3372,
      "flying": 3373,
      "satisfied": 3374,
      "Check": 3375,
      "based": 3376,
      "German": 3377,
      "150": 3378,
      "caf": 3379,
      "kick": 3380,
      "thro": 3381,
      "orge": 3382,
      "hello": 3383,
      "icles": 3384,
      "acked": 3385,
      "gold": 3386,
      "Were": 3387,
      "ources": 3388,
      "shi": 3389,
      "nobody": 3390,
      "cient": 3391,
      "reng": 3392,
      "breath": 3393,
      "qualified": 3394,
      "terribly": 3395,
      "warrant": 3396,
      "virus": 3397,
      "potato": 3398,
      "Lucy": 3399,
      "registered": 3400,
      "welve": 3401,
      "character": 3402,
      "vacan": 3403,
      "promised": 3404,
      "modern": 3405,
      "elevator": 3406,
      "City": 3407,
      "Has": 3408,
      "Lee": 3409,
      "Spe": 3410,
      "cine": 3411,
      "cities": 3412,
      "dden": 3413,
      "ging": 3414,
      "pal": 3415,
      "pian": 3416,
      "seng": 3417,
      "encour": 3418,
      "church": 3419,
      "sudden": 3420,
      "notes": 3421,
      "prepar": 3422,
      "cies": 3423,
      "mates": 3424,
      "accounting": 3425,
      "seriously": 3426,
      "younger": 3427,
      "boarding": 3428,
      "International": 3429,
      "opportunities": 3430,
      "Joe": 3431,
      "charges": 3432,
      "score": 3433,
      "request": 3434,
      "21": 3435,
      "Cool": 3436,
      "Octo": 3437,
      "Rose": 3438,
      "cry": 3439,
      "rance": 3440,
      "zes": 3441,
      "relat": 3442,
      "ordin": 3443,
      "separ": 3444,
      "stri": 3445,
      "streng": 3446,
      "wet": 3447,
      "lift": 3448,
      "ached": 3449,
      "indeed": 3450,
      "depart": 3451,
      "unit": 3452,
      "plus": 3453,
      "pleased": 3454,
      "gotten": 3455,
      "redu": 3456,
      "overseas": 3457,
      "surely": 3458,
      "studied": 3459,
      "gging": 3460,
      "lived": 3461,
      "realize": 3462,
      "Johnson": 3463,
      "basic": 3464,
      "According": 3465,
      "distance": 3466,
      "neighborhood": 3467,
      "Probably": 3468,
      "picnic": 3469,
      "equipment": 3470,
      "variety": 3471,
      "George": 3472,
      "Profess": 3473,
      "annual": 3474,
      "October": 3475,
      "26": 3476,
      "Ben": 3477,
      "Put": 3478,
      "emb": 3479,
      "talked": 3480,
      "ined": 3481,
      "income": 3482,
      "ory": 3483,
      "ison": 3484,
      "argu": 3485,
      "bec": 3486,
      "asleep": 3487,
      "somebody": 3488,
      "urse": 3489,
      "extens": 3490,
      "ques": 3491,
      "iling": 3492,
      "apple": 3493,
      "brea": 3494,
      "accounts": 3495,
      "filled": 3496,
      "Brit": 3497,
      "direction": 3498,
      "Frank": 3499,
      "occas": 3500,
      "legal": 3501,
      "candid": 3502,
      "Michael": 3503,
      "appear": 3504,
      "Chen": 3505,
      "Er": 3506,
      "June": 3507,
      "Linda": 3508,
      "aver": 3509,
      "darling": 3510,
      "rot": 3511,
      "shel": 3512,
      "vio": 3513,
      "renew": 3514,
      "refri": 3515,
      "isa": 3516,
      "roast": 3517,
      "abl": 3518,
      "abo": 3519,
      "ceed": 3520,
      "lob": 3521,
      "demand": 3522,
      "uncle": 3523,
      "article": 3524,
      "events": 3525,
      "commer": 3526,
      "assign": 3527,
      "tribut": 3528,
      "register": 3529,
      "larger": 3530,
      "chair": 3531,
      "papers": 3532,
      "Unfortunately": 3533,
      "parties": 3534,
      "difficul": 3535,
      "draft": 3536,
      "tests": 3537,
      "extreme": 3538,
      "employee": 3539,
      "energy": 3540,
      "ential": 3541,
      "settled": 3542,
      "normal": 3543,
      "Pretty": 3544,
      "Thomas": 3545,
      "Professor": 3546,
      "refriger": 3547,
      "AT": 3548,
      "hou": 3549,
      "twelve": 3550,
      "wrap": 3551,
      "coho": 3552,
      "fered": 3553,
      "univer": 3554,
      "mul": 3555,
      "ulous": 3556,
      "ured": 3557,
      "pose": 3558,
      "typ": 3559,
      "lets": 3560,
      "map": 3561,
      "travell": 3562,
      "grade": 3563,
      "putting": 3564,
      "venir": 3565,
      "Alice": 3566,
      "Americans": 3567,
      "medical": 3568,
      "Department": 3569,
      "awful": 3570,
      "volu": 3571,
      "depend": 3572,
      "horrible": 3573,
      "Grand": 3574,
      "itors": 3575,
      "Daniel": 3576,
      "World": 3577,
      "snack": 3578,
      "emergency": 3579,
      "Canada": 3580,
      "throat": 3581,
      "refrigerator": 3582,
      "36": 3583,
      "AB": 3584,
      "Am": 3585,
      "Card": 3586,
      "Ko": 3587,
      "South": 3588,
      "Zhang": 3589,
      "zz": 3590,
      "ancient": 3591,
      "leather": 3592,
      "becoming": 3593,
      "god": 3594,
      "suf": 3595,
      "antic": 3596,
      "aging": 3597,
      "agent": 3598,
      "tember": 3599,
      "indy": 3600,
      "polit": 3601,
      "establ": 3602,
      "offers": 3603,
      "boat": 3604,
      "acting": 3605,
      "epend": 3606,
      "stops": 3607,
      "meetings": 3608,
      "reception": 3609,
      "choices": 3610,
      "attitude": 3611,
      "exams": 3612,
      "passeng": 3613,
      "presentation": 3614,
      "tastes": 3615,
      "Perfect": 3616,
      "accepted": 3617,
      "changing": 3618,
      "Both": 3619,
      "wallet": 3620,
      "patient": 3621,
      "development": 3622,
      "registration": 3623,
      "Time": 3624,
      "concerned": 3625,
      "journey": 3626,
      "aisle": 3627,
      "September": 3628,
      "120": 3629,
      "Cur": 3630,
      "Cindy": 3631,
      "Fran": 3632,
      "Hon": 3633,
      "James": 3634,
      "King": 3635,
      "Turn": 3636,
      "Usu": 3637,
      "besides": 3638,
      "cis": 3639,
      "gri": 3640,
      "ium": 3641,
      "ivid": 3642,
      "sad": 3643,
      "ware": 3644,
      "alcoho": 3645,
      "rock": 3646,
      "achel": 3647,
      "irty": 3648,
      "shirts": 3649,
      "uses": 3650,
      "plant": 3651,
      "tood": 3652,
      "manu": 3653,
      "Aren": 3654,
      "Char": 3655,
      "stopped": 3656,
      "Excellent": 3657,
      "shops": 3658,
      "England": 3659,
      "trains": 3660,
      "inviting": 3661,
      "suitcase": 3662,
      "souvenir": 3663,
      "dressing": 3664,
      "entertain": 3665,
      "aware": 3666,
      "catalo": 3667,
      "silk": 3668,
      "Olympic": 3669,
      "Richard": 3670,
      "Bu": 3671,
      "Fe": 3672,
      "Mex": 3673,
      "Sam": 3674,
      "ale": 3675,
      "bra": 3676,
      "cul": 3677,
      "fed": 3678,
      "jacket": 3679,
      "mot": 3680,
      "museum": 3681,
      "scr": 3682,
      "thin": 3683,
      "orange": 3684,
      "members": 3685,
      "veh": 3686,
      "select": 3687,
      "comb": 3688,
      "agency": 3689,
      "agreed": 3690,
      "Helen": 3691,
      "rail": 3692,
      "goodbye": 3693,
      "convers": 3694,
      "prin": 3695,
      "previous": 3696,
      "istic": 3697,
      "minis": 3698,
      "weren": 3699,
      "dial": 3700,
      "bling": 3701,
      "blow": 3702,
      "ips": 3703,
      "positive": 3704,
      "survey": 3705,
      "umn": 3706,
      "cycle": 3707,
      "Someone": 3708,
      "iversary": 3709,
      "client": 3710,
      "Deposit": 3711,
      "stuck": 3712,
      "casual": 3713,
      "related": 3714,
      "includes": 3715,
      "copies": 3716,
      "holidays": 3717,
      "ossible": 3718,
      "techno": 3719,
      "responsibility": 3720,
      "houses": 3721,
      "Quite": 3722,
      "cinema": 3723,
      "Usually": 3724,
      "Mexic": 3725,
      "AM": 3726,
      "Each": 3727,
      "Mum": 3728,
      "PM": 3729,
      "Tra": 3730,
      "dressed": 3731,
      "nast": 3732,
      "pstick": 3733,
      "tar": 3734,
      "van": 3735,
      "western": 3736,
      "zhou": 3737,
      "replace": 3738,
      "seaf": 3739,
      "arrest": 3740,
      "aylor": 3741,
      "chest": 3742,
      "etc": 3743,
      "access": 3744,
      "goal": 3745,
      "shut": 3746,
      "losing": 3747,
      "host": 3748,
      "exper": 3749,
      "proof": 3750,
      "cky": 3751,
      "trick": 3752,
      "bucks": 3753,
      "mony": 3754,
      "sites": 3755,
      "Before": 3756,
      "highly": 3757,
      "centre": 3758,
      "invitation": 3759,
      "beauty": 3760,
      "Looks": 3761,
      "expenses": 3762,
      "automat": 3763,
      "profit": 3764,
      "convenience": 3765,
      "clearly": 3766,
      "figures": 3767,
      "France": 3768,
      "material": 3769,
      "charged": 3770,
      "exhibition": 3771,
      "Wonder": 3772,
      "Morning": 3773,
      "pollution": 3774,
      "venue": 3775,
      "ordinary": 3776,
      "manufact": 3777,
      "seafood": 3778,
      "78": 3779,
      "Four": 3780,
      "Jones": 3781,
      "Res": 3782,
      "Stop": 3783,
      "Tim": 3784,
      "Taylor": 3785,
      "Washing": 3786,
      "bies": 3787,
      "fan": 3788,
      "mad": 3789,
      "master": 3790,
      "tit": 3791,
      "tles": 3792,
      "ugh": 3793,
      "ury": 3794,
      "inves": 3795,
      "isy": 3796,
      "esome": 3797,
      "ston": 3798,
      "lif": 3799,
      "moon": 3800,
      "ours": 3801,
      "shy": 3802,
      "peace": 3803,
      "agne": 3804,
      "urry": 3805,
      "contribut": 3806,
      "novel": 3807,
      "cture": 3808,
      "compli": 3809,
      "cous": 3810,
      "math": 3811,
      "literature": 3812,
      "checks": 3813,
      "laugh": 3814,
      "classical": 3815,
      "rule": 3816,
      "smooth": 3817,
      "Stud": 3818,
      "author": 3819,
      "restaurants": 3820,
      "appointed": 3821,
      "terrific": 3822,
      "Liu": 3823,
      "frequ": 3824,
      "perfectly": 3825,
      "applying": 3826,
      "install": 3827,
      "graphy": 3828,
      "block": 3829,
      "blocks": 3830,
      "connection": 3831,
      "impressive": 3832,
      "relig": 3833,
      "anniversary": 3834,
      "Robert": 3835,
      "transportation": 3836,
      "Sarah": 3837,
      "digital": 3838,
      "laptop": 3839,
      "70": 3840,
      "CD": 3841,
      "Lily": 3842,
      "Show": 3843,
      "Walk": 3844,
      "brow": 3845,
      "cakes": 3846,
      "dat": 3847,
      "ears": 3848,
      "fool": 3849,
      "gress": 3850,
      "iled": 3851,
      "lake": 3852,
      "sides": 3853,
      "trees": 3854,
      "zing": 3855,
      "init": 3856,
      "remain": 3857,
      "aller": 3858,
      "lid": 3859,
      "chess": 3860,
      "chose": 3861,
      "tip": 3862,
      "ama": 3863,
      "loss": 3864,
      "butter": 3865,
      "unless": 3866,
      "quant": 3867,
      "affect": 3868,
      "resident": 3869,
      "focus": 3870,
      "types": 3871,
      "specially": 3872,
      "fries": 3873,
      "served": 3874,
      "dump": 3875,
      "torna": 3876,
      "pale": 3877,
      "sets": 3878,
      "singing": 3879,
      "jeans": 3880,
      "dealing": 3881,
      "personality": 3882,
      "relaxed": 3883,
      "slip": 3884,
      "July": 3885,
      "mountains": 3886,
      "announ": 3887,
      "advertisement": 3888,
      "declare": 3889,
      "appetiz": 3890,
      "Business": 3891,
      "ATM": 3892,
      "ABC": 3893,
      "Francis": 3894,
      "Ano": 3895,
      "Five": 3896,
      "SA": 3897,
      "Sally": 3898,
      "fail": 3899,
      "gal": 3900,
      "gam": 3901,
      "iv": 3902,
      "rating": 3903,
      "scar": 3904,
      "tag": 3905,
      "incred": 3906,
      "toi": 3907,
      "erk": 3908,
      "ism": 3909,
      "stat": 3910,
      "areas": 3911,
      "urb": 3912,
      "independ": 3913,
      "yellow": 3914,
      "offices": 3915,
      "reduce": 3916,
      "tions": 3917,
      "themselves": 3918,
      "proud": 3919,
      "spect": 3920,
      "avour": 3921,
      "unders": 3922,
      "brid": 3923,
      "download": 3924,
      "dru": 3925,
      "Enjoy": 3926,
      "Ange": 3927,
      "missing": 3928,
      "earn": 3929,
      "supplies": 3930,
      "dining": 3931,
      "sky": 3932,
      "skirt": 3933,
      "taught": 3934,
      "interviewer": 3935,
      "qualific": 3936,
      "spending": 3937,
      "rains": 3938,
      "raining": 3939,
      "subs": 3940,
      "south": 3941,
      "basis": 3942,
      "falling": 3943,
      "gifts": 3944,
      "Julia": 3945,
      "requirements": 3946,
      "cigarettes": 3947,
      "cooperation": 3948,
      "warranty": 3949,
      "Wonderful": 3950,
      "Another": 3951,
      "BA": 3952,
      "Dis": 3953,
      "Hurry": 3954,
      "Over": 3955,
      "Wall": 3956,
      "Western": 3957,
      "bite": 3958,
      "bie": 3959,
      "flex": 3960,
      "jud": 3961,
      "ker": 3962,
      "mir": 3963,
      "spl": 3964,
      "uh": 3965,
      "west": 3966,
      "formed": 3967,
      "shine": 3968,
      "exact": 3969,
      "units": 3970,
      "plate": 3971,
      "noisy": 3972,
      "agement": 3973,
      "max": 3974,
      "series": 3975,
      "loved": 3976,
      "died": 3977,
      "blame": 3978,
      "players": 3979,
      "showing": 3980,
      "surv": 3981,
      "accountant": 3982,
      "opened": 3983,
      "talent": 3984,
      "weekends": 3985,
      "senior": 3986,
      "seller": 3987,
      "transaction": 3988,
      "tourist": 3989,
      "Definitely": 3990,
      "styles": 3991,
      "Road": 3992,
      "relaxing": 3993,
      "flower": 3994,
      "eteria": 3995,
      "songs": 3996,
      "slowly": 3997,
      "Second": 3998,
      "investment": 3999,
      "characters": 4000,
      "proposal": 4001,
      "Corpor": 4002,
      "divorce": 4003,
      "cafeteria": 4004,
      "occasion": 4005,
      "average": 4006,
      "above": 4007,
      "Washington": 4008,
      "75": 4009,
      "Fair": 4010,
      "Mc": 4011,
      "Sing": 4012,
      "Wil": 4013,
      "ado": 4014,
      "dent": 4015,
      "har": 4016,
      "lace": 4017,
      "tre": 4018,
      "tan": 4019,
      "inch": 4020,
      "represent": 4021,
      "atures": 4022,
      "ingred": 4023,
      "stations": 4024,
      "lection": 4025,
      "entific": 4026,
      "adjust": 4027,
      "sured": 4028,
      "cep": 4029,
      "Things": 4030,
      "agon": 4031,
      "seemed": 4032,
      "articles": 4033,
      "sia": 4034,
      "stolen": 4035,
      "impossible": 4036,
      "meaning": 4037,
      "badly": 4038,
      "supply": 4039,
      "Something": 4040,
      "scheduled": 4041,
      "supervis": 4042,
      "gentle": 4043,
      "records": 4044,
      "cameras": 4045,
      "glasses": 4046,
      "sightseeing": 4047,
      "mistakes": 4048,
      "spoken": 4049,
      "responsibilities": 4050,
      "brief": 4051,
      "original": 4052,
      "champagne": 4053,
      "efficient": 4054,
      "nasty": 4055,
      "ingredient": 4056,
      "El": 4057,
      "Glad": 4058,
      "Gener": 4059,
      "Jason": 4060,
      "Spr": 4061,
      "While": 4062,
      "bes": 4063,
      "burn": 4064,
      "bicy": 4065,
      "die": 4066,
      "dating": 4067,
      "een": 4068,
      "favour": 4069,
      "gro": 4070,
      "kno": 4071,
      "mass": 4072,
      "pi": 4073,
      "pred": 4074,
      "vy": 4075,
      "vill": 4076,
      "wa": 4077,
      "rep": 4078,
      "anno": 4079,
      "theater": 4080,
      "legs": 4081,
      "belie": 4082,
      "river": 4083,
      "anytime": 4084,
      "ural": 4085,
      "washed": 4086,
      "proced": 4087,
      "perfu": 4088,
      "plants": 4089,
      "court": 4090,
      "Chan": 4091,
      "apples": 4092,
      "grab": 4093,
      "plays": 4094,
      "lazy": 4095,
      "enjoying": 4096,
      "brings": 4097,
      "additional": 4098,
      "reserved": 4099,
      "strate": 4100,
      "traveler": 4101,
      "maintain": 4102,
      "holding": 4103,
      "climate": 4104,
      "straw": 4105,
      "graduation": 4106,
      "porter": 4107,
      "ladies": 4108,
      "competition": 4109,
      "properly": 4110,
      "statement": 4111,
      "Olympics": 4112,
      "memory": 4113,
      "hobbies": 4114,
      "advantage": 4115,
      "failed": 4116,
      "stamps": 4117,
      "measure": 4118,
      "extension": 4119,
      "quantity": 4120,
      "ingredients": 4121,
      "22": 4122,
      "34": 4123,
      "35": 4124,
      "Aug": 4125,
      "Econo": 4126,
      "Six": 4127,
      "Too": 4128,
      "cin": 4129,
      "flies": 4130,
      "jun": 4131,
      "nia": 4132,
      "pound": 4133,
      "punch": 4134,
      "pills": 4135,
      "vit": 4136,
      "zoo": 4137,
      "anal": 4138,
      "onto": 4139,
      "lla": 4140,
      "meter": 4141,
      "ald": 4142,
      "wild": 4143,
      "ute": 4144,
      "acy": 4145,
      "accep": 4146,
      "nte": 4147,
      "suite": 4148,
      "amp": 4149,
      "fective": 4150,
      "worst": 4151,
      "entrance": 4152,
      "quot": 4153,
      "spell": 4154,
      "ideal": 4155,
      "brush": 4156,
      "grown": 4157,
      "cloth": 4158,
      "rences": 4159,
      "showed": 4160,
      "Believe": 4161,
      "studies": 4162,
      "paign": 4163,
      "rude": 4164,
      "shame": 4165,
      "added": 4166,
      "campaign": 4167,
      "reasons": 4168,
      "sweat": 4169,
      "consideration": 4170,
      "messages": 4171,
      "Chris": 4172,
      "furnished": 4173,
      "techn": 4174,
      "regularly": 4175,
      "electron": 4176,
      "effects": 4177,
      "culture": 4178,
      "switch": 4179,
      "options": 4180,
      "safety": 4181,
      "retirement": 4182,
      "potatoes": 4183,
      "suddenly": 4184,
      "shelf": 4185,
      "typical": 4186,
      "toilet": 4187,
      "Cent": 4188,
      "Cali": 4189,
      "East": 4190,
      "Festival": 4191,
      "House": 4192,
      "Sal": 4193,
      "Sup": 4194,
      "Sue": 4195,
      "VI": 4196,
      "Wind": 4197,
      "Yep": 4198,
      "dust": 4199,
      "dates": 4200,
      "glo": 4201,
      "ler": 4202,
      "mics": 4203,
      "phi": 4204,
      "packed": 4205,
      "rise": 4206,
      "reco": 4207,
      "anced": 4208,
      "theat": 4209,
      "meth": 4210,
      "stic": 4211,
      "aries": 4212,
      "arian": 4213,
      "chips": 4214,
      "coll": 4215,
      "ably": 4216,
      "golf": 4217,
      "ception": 4218,
      "agers": 4219,
      "individ": 4220,
      "depressed": 4221,
      "joking": 4222,
      "Haven": 4223,
      "disappointed": 4224,
      "waiter": 4225,
      "effort": 4226,
      "singer": 4227,
      "frank": 4228,
      "pump": 4229,
      "president": 4230,
      "warning": 4231,
      "teams": 4232,
      "confident": 4233,
      "basically": 4234,
      "purpose": 4235,
      "practical": 4236,
      "fishing": 4237,
      "particip": 4238,
      "north": 4239,
      "warming": 4240,
      "degrees": 4241,
      "entire": 4242,
      "experienced": 4243,
      "deserve": 4244,
      "cabin": 4245,
      "piano": 4246,
      "extremely": 4247,
      "Kore": 4248,
      "alcohol": 4249,
      "vehicle": 4250,
      "conversation": 4251,
      "split": 4252,
      "Califor": 4253,
      "28": 4254,
      "Master": 4255,
      "Zina": 4256,
      "ao": 4257,
      "bunch": 4258,
      "cooked": 4259,
      "dare": 4260,
      "fits": 4261,
      "ga": 4262,
      "gun": 4263,
      "nail": 4264,
      "tone": 4265,
      "uri": 4266,
      "vable": 4267,
      "repe": 4268,
      "remony": 4269,
      "selection": 4270,
      "sole": 4271,
      "roy": 4272,
      "neare": 4273,
      "nels": 4274,
      "ird": 4275,
      "feed": 4276,
      "unusual": 4277,
      "plat": 4278,
      "pocket": 4279,
      "fol": 4280,
      "sian": 4281,
      "typing": 4282,
      "clerk": 4283,
      "cafe": 4284,
      "Anna": 4285,
      "handsome": 4286,
      "skill": 4287,
      "ridge": 4288,
      "network": 4289,
      "seconds": 4290,
      "paperwork": 4291,
      "sixty": 4292,
      "crack": 4293,
      "symp": 4294,
      "honor": 4295,
      "flavor": 4296,
      "fairly": 4297,
      "generally": 4298,
      "True": 4299,
      "leader": 4300,
      "connect": 4301,
      "risk": 4302,
      "hobby": 4303,
      "storm": 4304,
      "weakness": 4305,
      "physical": 4306,
      "rupt": 4307,
      "challenging": 4308,
      "Speaking": 4309,
      "commercial": 4310,
      "incredible": 4311,
      "survive": 4312,
      "August": 4313,
      "Super": 4314,
      "88": 4315,
      "800": 4316,
      "Cer": 4317,
      "Kate": 4318,
      "Lisa": 4319,
      "Mart": 4320,
      "PI": 4321,
      "Sch": 4322,
      "Want": 4323,
      "dor": 4324,
      "fle": 4325,
      "fry": 4326,
      "olar": 4327,
      "pork": 4328,
      "atives": 4329,
      "belt": 4330,
      "wire": 4331,
      "tial": 4332,
      "cancell": 4333,
      "ading": 4334,
      "goals": 4335,
      "thinks": 4336,
      "thern": 4337,
      "concl": 4338,
      "worker": 4339,
      "drunk": 4340,
      "scholar": 4341,
      "description": 4342,
      "broad": 4343,
      "obvious": 4344,
      "auto": 4345,
      "fourth": 4346,
      "topic": 4347,
      "cleaned": 4348,
      "confidence": 4349,
      "fitting": 4350,
      "boys": 4351,
      "completed": 4352,
      "solution": 4353,
      "doors": 4354,
      "insist": 4355,
      "bottles": 4356,
      "sunny": 4357,
      "lence": 4358,
      "property": 4359,
      "families": 4360,
      "Working": 4361,
      "Poor": 4362,
      "officer": 4363,
      "necklace": 4364,
      "Service": 4365,
      "scale": 4366,
      "critic": 4367,
      "PCC": 4368,
      "empty": 4369,
      "travelling": 4370,
      "expert": 4371,
      "title": 4372,
      "tornado": 4373,
      "California": 4374,
      "Avenue": 4375,
      "Call": 4376,
      "President": 4377,
      "Ter": 4378,
      "West": 4379,
      "apart": 4380,
      "bun": 4381,
      "cate": 4382,
      "ech": 4383,
      "eper": 4384,
      "fra": 4385,
      "fancy": 4386,
      "gers": 4387,
      "loose": 4388,
      "race": 4389,
      "rates": 4390,
      "uch": 4391,
      "wing": 4392,
      "memo": 4393,
      "seve": 4394,
      "stone": 4395,
      "haust": 4396,
      "belong": 4397,
      "ases": 4398,
      "soda": 4399,
      "ids": 4400,
      "iron": 4401,
      "lock": 4402,
      "arts": 4403,
      "conside": 4404,
      "hired": 4405,
      "els": 4406,
      "compens": 4407,
      "cheer": 4408,
      "cough": 4409,
      "commo": 4410,
      "roommate": 4411,
      "hadn": 4412,
      "Chic": 4413,
      "pays": 4414,
      "ichuan": 4415,
      "sities": 4416,
      "Surely": 4417,
      "wrote": 4418,
      "names": 4419,
      "intend": 4420,
      "cord": 4421,
      "offering": 4422,
      "bedrooms": 4423,
      "breaks": 4424,
      "teaching": 4425,
      "iao": 4426,
      "hunt": 4427,
      "grades": 4428,
      "sleeping": 4429,
      "returns": 4430,
      "considering": 4431,
      "following": 4432,
      "windows": 4433,
      "forgotten": 4434,
      "designed": 4435,
      "mentioned": 4436,
      "cats": 4437,
      "particularly": 4438,
      "walls": 4439,
      "starving": 4440,
      "occup": 4441,
      "benefit": 4442,
      "turning": 4443,
      "route": 4444,
      "tomato": 4445,
      "bowl": 4446,
      "coln": 4447,
      "skiing": 4448,
      "labor": 4449,
      "protect": 4450,
      "cocktail": 4451,
      "limited": 4452,
      "sharp": 4453,
      "universities": 4454,
      "volunte": 4455,
      "souvenirs": 4456,
      "technology": 4457,
      "bridge": 4458,
      "drugs": 4459,
      "acceptable": 4460,
      "technical": 4461,
      "repeat": 4462,
      "nearest": 4463,
      "PIN": 4464,
      "considered": 4465,
      "Afr": 4466,
      "Bri": 4467,
      "Bring": 4468,
      "Center": 4469,
      "Eve": 4470,
      "Emor": 4471,
      "Hen": 4472,
      "Ken": 4473,
      "Mm": 4474,
      "Sun": 4475,
      "Squ": 4476,
      "Sichuan": 4477,
      "Ted": 4478,
      "iam": 4479,
      "nie": 4480,
      "rings": 4481,
      "sis": 4482,
      "shad": 4483,
      "tv": 4484,
      "vard": 4485,
      "height": 4486,
      "stret": 4487,
      "offered": 4488,
      "altogether": 4489,
      "sore": 4490,
      "Web": 4491,
      "likely": 4492,
      "shoo": 4493,
      "cember": 4494,
      "exhaust": 4495,
      "raz": 4496,
      "rights": 4497,
      "prob": 4498,
      "progress": 4499,
      "hiking": 4500,
      "ilton": 4501,
      "gotta": 4502,
      "otherwise": 4503,
      "chemist": 4504,
      "owners": 4505,
      "chances": 4506,
      "channel": 4507,
      "channels": 4508,
      "angzhou": 4509,
      "display": 4510,
      "invo": 4511,
      "William": 4512,
      "sending": 4513,
      "Almost": 4514,
      "Whoa": 4515,
      "attach": 4516,
      "eleven": 4517,
      "location": 4518,
      "December": 4519,
      "hundreds": 4520,
      "lawy": 4521,
      "discussion": 4522,
      "damaged": 4523,
      "neighbors": 4524,
      "vidence": 4525,
      "---": 4526,
      "Love": 4527,
      "funds": 4528,
      "Lincoln": 4529,
      "advertisements": 4530,
      "scenery": 4531,
      "housing": 4532,
      "habits": 4533,
      "XXXX": 4534,
      "arrang": 4535,
      "Harvard": 4536,
      "Personal": 4537,
      "candidate": 4538,
      "catalogu": 4539,
      "princi": 4540,
      "compliment": 4541,
      "cousin": 4542,
      "Wilson": 4543,
      "bicycle": 4544,
      "perfume": 4545,
      "Chicago": 4546,
      "Emory": 4547,
      "Henry": 4548,
      "29": 4549,
      "Baker": 4550,
      "Em": 4551,
      "Fred": 4552,
      "Flight": 4553,
      "Long": 4554,
      "Med": 4555,
      "Rick": 4556,
      "Sy": 4557,
      "Sit": 4558,
      "Ten": 4559,
      "boo": 4560,
      "cil": 4561,
      "em": 4562,
      "gin": 4563,
      "nin": 4564,
      "sour": 4565,
      "slight": 4566,
      "tong": 4567,
      "ums": 4568,
      "ww": 4569,
      "inc": 4570,
      "reput": 4571,
      "attract": 4572,
      "toms": 4573,
      "eral": 4574,
      "meant": 4575,
      "hey": 4576,
      "bey": 4577,
      "force": 4578,
      "forgive": 4579,
      "iction": 4580,
      "weigh": 4581,
      "admit": 4582,
      "iring": 4583,
      "Their": 4584,
      "oods": 4585,
      "shif": 4586,
      "loans": 4587,
      "congr": 4588,
      "romantic": 4589,
      "aven": 4590,
      "minor": 4591,
      "waitress": 4592,
      "shoe": 4593,
      "visited": 4594,
      "happening": 4595,
      "runs": 4596,
      "contest": 4597,
      "signs": 4598,
      "addition": 4599,
      "markets": 4600,
      "customs": 4601,
      "vacu": 4602,
      "result": 4603,
      "IBA": 4604,
      "conditioning": 4605,
      "Janet": 4606,
      "laws": 4607,
      "explo": 4608,
      "transferred": 4609,
      "horror": 4610,
      "newspapers": 4611,
      "satisfac": 4612,
      "economic": 4613,
      "community": 4614,
      "routine": 4615,
      "advantages": 4616,
      "voted": 4617,
      "umbre": 4618,
      "sample": 4619,
      "shipping": 4620,
      "relatives": 4621,
      "departure": 4622,
      "reduction": 4623,
      "achelor": 4624,
      "qualifications": 4625,
      "maximum": 4626,
      "Spring": 4627,
      "global": 4628,
      "250": 4629,
      "Alex": 4630,
      "Bas": 4631,
      "Cla": 4632,
      "Dave": 4633,
      "Dick": 4634,
      "Open": 4635,
      "Watch": 4636,
      "dies": 4637,
      "ey": 4638,
      "harm": 4639,
      "junk": 4640,
      "nature": 4641,
      "oven": 4642,
      "pink": 4643,
      "pants": 4644,
      "ued": 4645,
      "vi": 4646,
      "xi": 4647,
      "yle": 4648,
      "thri": 4649,
      "inse": 4650,
      "influ": 4651,
      "informed": 4652,
      "rely": 4653,
      "ories": 4654,
      "mestic": 4655,
      "itself": 4656,
      "sec": 4657,
      "sex": 4658,
      "stage": 4659,
      "liqu": 4660,
      "coke": 4661,
      "roof": 4662,
      "rocks": 4663,
      "nder": 4664,
      "ceremony": 4665,
      "const": 4666,
      "akers": 4667,
      "item": 4668,
      "bored": 4669,
      "speech": 4670,
      "brick": 4671,
      "forecast": 4672,
      "mark": 4673,
      "disco": 4674,
      "stands": 4675,
      "corn": 4676,
      "Colle": 4677,
      "planet": 4678,
      "handed": 4679,
      "personally": 4680,
      "breast": 4681,
      "effective": 4682,
      "fired": 4683,
      "steal": 4684,
      "listed": 4685,
      "contain": 4686,
      "Forget": 4687,
      "tape": 4688,
      "aunt": 4689,
      "icted": 4690,
      "apartments": 4691,
      "reservations": 4692,
      "fitness": 4693,
      "dete": 4694,
      "Waiter": 4695,
      "orgeous": 4696,
      "expand": 4697,
      "vegetarian": 4698,
      "Trust": 4699,
      "Boston": 4700,
      "professor": 4701,
      "operation": 4702,
      "promoted": 4703,
      "spots": 4704,
      "calm": 4705,
      "concern": 4706,
      "motorcycle": 4707,
      "Barbie": 4708,
      "climbing": 4709,
      "Otherwise": 4710,
      "Sandals": 4711,
      "separate": 4712,
      "Current": 4713,
      "data": 4714,
      "supervisor": 4715,
      "lawyer": 4716,
      "tongue": 4717,
      "satisfaction": 4718,
      "400": 4719,
      "56": 4720,
      "86": 4721,
      "Bir": 4722,
      "CP": 4723,
      "Cred": 4724,
      "Dam": 4725,
      "Jess": 4726,
      "National": 4727,
      "Pet": 4728,
      "Rus": 4729,
      "Rest": 4730,
      "San": 4731,
      "bour": 4732,
      "cro": 4733,
      "evidence": 4734,
      "fab": 4735,
      "fond": 4736,
      "festival": 4737,
      "hid": 4738,
      "nurse": 4739,
      "uary": 4740,
      "seed": 4741,
      "stir": 4742,
      "hail": 4743,
      "keen": 4744,
      "lipstick": 4745,
      "utch": 4746,
      "shor": 4747,
      "features": 4748,
      "teeth": 4749,
      "iff": 4750,
      "exe": 4751,
      "exception": 4752,
      "prove": 4753,
      "union": 4754,
      "unfortunately": 4755,
      "ille": 4756,
      "partner": 4757,
      "ishing": 4758,
      "printer": 4759,
      "greatest": 4760,
      "grass": 4761,
      "dull": 4762,
      "downstairs": 4763,
      "Donald": 4764,
      "caused": 4765,
      "airmail": 4766,
      "interests": 4767,
      "trim": 4768,
      "visitors": 4769,
      "highest": 4770,
      "charming": 4771,
      "membership": 4772,
      "clever": 4773,
      "trainer": 4774,
      "autumn": 4775,
      "signed": 4776,
      "bird": 4777,
      "prize": 4778,
      "hotels": 4779,
      "mainly": 4780,
      "enterpr": 4781,
      "Rome": 4782,
      "engaged": 4783,
      "pets": 4784,
      "logical": 4785,
      "projects": 4786,
      "fashionable": 4787,
      "fruits": 4788,
      "policies": 4789,
      "grandmother": 4790,
      "correctly": 4791,
      "silver": 4792,
      "reliable": 4793,
      "Parker": 4794,
      "Guess": 4795,
      "Manager": 4796,
      "cultural": 4797,
      "Hopefully": 4798,
      "battery": 4799,
      "Betty": 4800,
      "appliances": 4801,
      "Finally": 4802,
      "provides": 4803,
      "suffer": 4804,
      "entertainment": 4805,
      "manufacture": 4806,
      "appetizer": 4807,
      "flexible": 4808,
      "Generally": 4809,
      "believable": 4810,
      "recogn": 4811,
      "Square": 4812,
      "congratulations": 4813,
      "Credit": 4814,
      "IT": 4815,
      "Karen": 4816,
      "LA": 4817,
      "Los": 4818,
      "Main": 4819,
      "Out": 4820,
      "Same": 4821,
      "Tony": 4822,
      "Work": 4823,
      "ax": 4824,
      "bage": 4825,
      "gorgeous": 4826,
      "mn": 4827,
      "nap": 4828,
      "ods": 4829,
      "ray": 4830,
      "sl": 4831,
      "sne": 4832,
      "thus": 4833,
      "revo": 4834,
      "itive": 4835,
      "essen": 4836,
      "stain": 4837,
      "ena": 4838,
      "bean": 4839,
      "below": 4840,
      "icing": 4841,
      "alt": 4842,
      "alous": 4843,
      "eding": 4844,
      "liers": 4845,
      "china": 4846,
      "rimp": 4847,
      "roaches": 4848,
      "cancer": 4849,
      "admi": 4850,
      "superi": 4851,
      "shout": 4852,
      "ups": 4853,
      "enda": 4854,
      "chef": 4855,
      "mbur": 4856,
      "event": 4857,
      "hero": 4858,
      "histor": 4859,
      "clothing": 4860,
      "laid": 4861,
      "image": 4862,
      "eaten": 4863,
      "smile": 4864,
      "stere": 4865,
      "speaks": 4866,
      "qualities": 4867,
      "frust": 4868,
      "crime": 4869,
      "Everybody": 4870,
      "eleg": 4871,
      "election": 4872,
      "passion": 4873,
      "recommendation": 4874,
      "presents": 4875,
      "confused": 4876,
      "reports": 4877,
      "Roman": 4878,
      "oppos": 4879,
      "garage": 4880,
      "requires": 4881,
      "potential": 4882,
      "tradition": 4883,
      "operate": 4884,
      "Kevin": 4885,
      "burger": 4886,
      "employer": 4887,
      "picked": 4888,
      "Fore": 4889,
      "divorced": 4890,
      "paintings": 4891,
      "cigarette": 4892,
      "applied": 4893,
      "embarr": 4894,
      "ministration": 4895,
      "investi": 4896,
      "strawber": 4897,
      "vitam": 4898,
      "individual": 4899,
      "probation": 4900,
      "umbrella": 4901,
      "opposite": 4902,
      "27": 4903,
      "77": 4904,
      "Fill": 4905,
      "IF": 4906,
      "Je": 4907,
      "Men": 4908,
      "Mel": 4909,
      "Mountain": 4910,
      "Merry": 4911,
      "Net": 4912,
      "Vince": 4913,
      "Ye": 4914,
      "Yang": 4915,
      "bars": 4916,
      "dirty": 4917,
      "ired": 4918,
      "ians": 4919,
      "pir": 4920,
      "pil": 4921,
      "pig": 4922,
      "pitch": 4923,
      "ram": 4924,
      "wow": 4925,
      "wra": 4926,
      "walked": 4927,
      "intention": 4928,
      "stars": 4929,
      "arms": 4930,
      "leng": 4931,
      "ened": 4932,
      "beha": 4933,
      "became": 4934,
      "alty": 4935,
      "altern": 4936,
      "alarm": 4937,
      "domestic": 4938,
      "coast": 4939,
      "colu": 4940,
      "outstanding": 4941,
      "absent": 4942,
      "gos": 4943,
      "anta": 4944,
      "fection": 4945,
      "agenda": 4946,
      "ushed": 4947,
      "debit": 4948,
      "upstairs": 4949,
      "goodness": 4950,
      "ulation": 4951,
      "romance": 4952,
      "compar": 4953,
      "jogging": 4954,
      "Andy": 4955,
      "letting": 4956,
      "bride": 4957,
      "tenance": 4958,
      "pencil": 4959,
      "carrot": 4960,
      "closer": 4961,
      "finance": 4962,
      "rug": 4963,
      "household": 4964,
      "psy": 4965,
      "thoughtful": 4966,
      "skirts": 4967,
      "function": 4968,
      "regulations": 4969,
      "regret": 4970,
      "Form": 4971,
      "evenings": 4972,
      "lessons": 4973,
      "athy": 4974,
      "athlet": 4975,
      "attack": 4976,
      "azz": 4977,
      "arriving": 4978,
      "relations": 4979,
      "bio": 4980,
      "fifth": 4981,
      "whenever": 4982,
      "purse": 4983,
      "foreigners": 4984,
      "placed": 4985,
      "photograph": 4986,
      "Daddy": 4987,
      "Jimmy": 4988,
      "Market": 4989,
      "pattern": 4990,
      "models": 4991,
      "Joan": 4992,
      "saving": 4993,
      "killed": 4994,
      "groups": 4995,
      "deadline": 4996,
      "subjects": 4997,
      "Mmmm": 4998,
      "corporation": 4999,
      "Angeles": 5000,
      "Corporation": 5001,
      "Central": 5002,
      "VISA": 5003,
      "Martin": 5004,
      "scholarship": 5005,
      "stretch": 5006,
      "exhausted": 5007,
      "invoice": 5008,
      "reputation": 5009,
      "column": 5010,
      "65": 5011,
      "Amy": 5012,
      "Braz": 5013,
      "Count": 5014,
      "Cont": 5015,
      "Dri": 5016,
      "Hilton": 5017,
      "Mill": 5018,
      "Oper": 5019,
      "Pal": 5020,
      "Wo": 5021,
      "ccer": 5022,
      "erest": 5023,
      "gap": 5024,
      "ique": 5025,
      "iency": 5026,
      "lp": 5027,
      "lun": 5028,
      "pple": 5029,
      "pun": 5030,
      "slot": 5031,
      "yard": 5032,
      "reward": 5033,
      "towards": 5034,
      "ows": 5035,
      "ences": 5036,
      "beans": 5037,
      "asy": 5038,
      "lder": 5039,
      "chin": 5040,
      "role": 5041,
      "neg": 5042,
      "adena": 5043,
      "moist": 5044,
      "shrimp": 5045,
      "mpoo": 5046,
      "Help": 5047,
      "hole": 5048,
      "ppers": 5049,
      "def": 5050,
      "decent": 5051,
      "permit": 5052,
      "ending": 5053,
      "affair": 5054,
      "resources": 5055,
      "amed": 5056,
      "igning": 5057,
      "coupon": 5058,
      "commit": 5059,
      "prevent": 5060,
      "cles": 5061,
      "causing": 5062,
      "forever": 5063,
      "sitive": 5064,
      "feelings": 5065,
      "lasts": 5066,
      "marks": 5067,
      "named": 5068,
      "Express": 5069,
      "Com": 5070,
      "setting": 5071,
      "central": 5072,
      "personnel": 5073,
      "shampoo": 5074,
      "heading": 5075,
      "worrying": 5076,
      "jealous": 5077,
      "collection": 5078,
      "teachers": 5079,
      "began": 5080,
      "parcel": 5081,
      "locked": 5082,
      "cris": 5083,
      "shortly": 5084,
      "facial": 5085,
      "deter": 5086,
      "landsca": 5087,
      "considerate": 5088,
      "scary": 5089,
      "Track": 5090,
      "required": 5091,
      "trading": 5092,
      "growth": 5093,
      "growing": 5094,
      "retur": 5095,
      "millions": 5096,
      "animal": 5097,
      "approach": 5098,
      "Loan": 5099,
      "nutr": 5100,
      "consult": 5101,
      "decorating": 5102,
      "appetite": 5103,
      "communication": 5104,
      "negotiate": 5105,
      "Better": 5106,
      "valuable": 5107,
      "preparing": 5108,
      "lobby": 5109,
      "difficulties": 5110,
      "village": 5111,
      "reply": 5112,
      "Brian": 5113,
      "beyond": 5114,
      "Restaurant": 5115,
      "admire": 5116,
      "superior": 5117,
      "1st": 5118,
      "2nd": 5119,
      "32": 5120,
      "39": 5121,
      "95": 5122,
      "Eight": 5123,
      "Fortun": 5124,
      "Gate": 5125,
      "Gee": 5126,
      "LS": 5127,
      "Lan": 5128,
      "Law": 5129,
      "Mars": 5130,
      "Nancy": 5131,
      "Pat": 5132,
      "Red": 5133,
      "VD": 5134,
      "Va": 5135,
      "Wu": 5136,
      "brain": 5137,
      "chas": 5138,
      "dated": 5139,
      "fright": 5140,
      "ges": 5141,
      "hes": 5142,
      "kins": 5143,
      "kyo": 5144,
      "none": 5145,
      "pages": 5146,
      "rated": 5147,
      "tables": 5148,
      "vic": 5149,
      "vil": 5150,
      "thirst": 5151,
      "thick": 5152,
      "ining": 5153,
      "intell": 5154,
      "inconvenience": 5155,
      "reached": 5156,
      "tow": 5157,
      "lli": 5158,
      "hew": 5159,
      "heaven": 5160,
      "arily": 5161,
      "hambur": 5162,
      "ldom": 5163,
      "soccer": 5164,
      "verted": 5165,
      "neither": 5166,
      "acious": 5167,
      "accommo": 5168,
      "oodles": 5169,
      "pepper": 5170,
      "cereal": 5171,
      "death": 5172,
      "perm": 5173,
      "condu": 5174,
      "shoulder": 5175,
      "trou": 5176,
      "ishment": 5177,
      "pron": 5178,
      "buff": 5179,
      "forest": 5180,
      "sizes": 5181,
      "mangoes": 5182,
      "managed": 5183,
      "cious": 5184,
      "male": 5185,
      "diving": 5186,
      "friendship": 5187,
      "hometown": 5188,
      "Reg": 5189,
      "distr": 5190,
      "phones": 5191,
      "Tokyo": 5192,
      "shake": 5193,
      "mile": 5194,
      "mium": 5195,
      "costu": 5196,
      "broch": 5197,
      "Although": 5198,
      "beds": 5199,
      "banks": 5200,
      "picking": 5201,
      "examination": 5202,
      "cuis": 5203,
      "promote": 5204,
      "exercising": 5205,
      "exercises": 5206,
      "roads": 5207,
      "haircut": 5208,
      "awfully": 5209,
      "craft": 5210,
      "sunshine": 5211,
      "falls": 5212,
      "fortune": 5213,
      "thousands": 5214,
      "USD": 5215,
      "slim": 5216,
      "competitive": 5217,
      "queen": 5218,
      "clubs": 5219,
      "killing": 5220,
      "Guangzhou": 5221,
      "Such": 5222,
      "official": 5223,
      "journal": 5224,
      "voting": 5225,
      "555": 5226,
      "organization": 5227,
      "finger": 5228,
      "mixed": 5229,
      "electricity": 5230,
      "possibly": 5231,
      "zero": 5232,
      "Charles": 5233,
      "railway": 5234,
      "Mexico": 5235,
      "laughing": 5236,
      "independent": 5237,
      "judge": 5238,
      "pipe": 5239,
      "WebTrack": 5240,
      "Damn": 5241,
      "elegant": 5242,
      "psycho": 5243,
      "returning": 5244,
      "Fortunately": 5245,
      "WebTracker": 5246,
      "Clu": 5247,
      "DVD": 5248,
      "Gree": 5249,
      "Games": 5250,
      "Hum": 5251,
      "Haw": 5252,
      "Sever": 5253,
      "Santa": 5254,
      "Yup": 5255,
      "award": 5256,
      "booth": 5257,
      "fro": 5258,
      "lone": 5259,
      "mut": 5260,
      "mig": 5261,
      "mort": 5262,
      "tack": 5263,
      "umin": 5264,
      "whis": 5265,
      "refer": 5266,
      "remit": 5267,
      "tories": 5268,
      "llen": 5269,
      "mechan": 5270,
      "itate": 5271,
      "states": 5272,
      "lemon": 5273,
      "ening": 5274,
      "bel": 5275,
      "forts": 5276,
      "ashed": 5277,
      "assured": 5278,
      "weird": 5279,
      "ripe": 5280,
      "outfit": 5281,
      "accompl": 5282,
      "Think": 5283,
      "Though": 5284,
      "tee": 5285,
      "uncomfortable": 5286,
      "ental": 5287,
      "concent": 5288,
      "compare": 5289,
      "sphere": 5290,
      "coun": 5291,
      "overweight": 5292,
      "cling": 5293,
      "tells": 5294,
      "stove": 5295,
      "mini": 5296,
      "grate": 5297,
      "udy": 5298,
      "serving": 5299,
      "whom": 5300,
      "marvel": 5301,
      "bles": 5302,
      "blind": 5303,
      "blouse": 5304,
      "Rebec": 5305,
      "fiction": 5306,
      "waited": 5307,
      "Anne": 5308,
      "classmates": 5309,
      "planned": 5310,
      "salt": 5311,
      "izing": 5312,
      "sooner": 5313,
      "efforts": 5314,
      "bringing": 5315,
      "chops": 5316,
      "realtor": 5317,
      "qualify": 5318,
      "flights": 5319,
      "smoker": 5320,
      "recommended": 5321,
      "15th": 5322,
      "complex": 5323,
      "barbec": 5324,
      "catching": 5325,
      "purchas": 5326,
      "leading": 5327,
      "truck": 5328,
      "horse": 5329,
      "educational": 5330,
      "arrangements": 5331,
      "satisfactory": 5332,
      "developed": 5333,
      "lentine": 5334,
      "connected": 5335,
      "candy": 5336,
      "capital": 5337,
      "withdrawal": 5338,
      "Pardon": 5339,
      "kilometers": 5340,
      "normally": 5341,
      "venture": 5342,
      "instructions": 5343,
      "colour": 5344,
      "experiences": 5345,
      "Harry": 5346,
      "European": 5347,
      "cockroaches": 5348,
      "possibility": 5349,
      "crying": 5350,
      "strengths": 5351,
      "breathe": 5352,
      "Britain": 5353,
      "passengers": 5354,
      "frequently": 5355,
      "understood": 5356,
      "dentist": 5357,
      "Elvin": 5358,
      "annoying": 5359,
      "electronic": 5360,
      "theatre": 5361,
      "cabinet": 5362,
      "volunteer": 5363,
      "shadow": 5364,
      "insect": 5365,
      "execut": 5366,
      "illegal": 5367,
      "Club": 5368,
      "Several": 5369,
      "Rebecca": 5370,
      "barbecue": 5371,
      "Book": 5372,
      "CIF": 5373,
      "Dian": 5374,
      "Dutch": 5375,
      "Especially": 5376,
      "FO": 5377,
      "Imp": 5378,
      "Kar": 5379,
      "Nan": 5380,
      "Ob": 5381,
      "PLS": 5382,
      "Seat": 5383,
      "Ty": 5384,
      "Twent": 5385,
      "Tian": 5386,
      "Umm": 5387,
      "dney": 5388,
      "efic": 5389,
      "grew": 5390,
      "jet": 5391,
      "lus": 5392,
      "mur": 5393,
      "nation": 5394,
      "noodles": 5395,
      "rd": 5396,
      "vior": 5397,
      "zzy": 5398,
      "iny": 5399,
      "inven": 5400,
      "rear": 5401,
      "recover": 5402,
      "ats": 5403,
      "toys": 5404,
      "enge": 5405,
      "envy": 5406,
      "enthus": 5407,
      "iculous": 5408,
      "assure": 5409,
      "alumin": 5410,
      "edge": 5411,
      "soap": 5412,
      "uts": 5413,
      "utilities": 5414,
      "arent": 5415,
      "identific": 5416,
      "abor": 5417,
      "abilities": 5418,
      "irmed": 5419,
      "anybody": 5420,
      "mosphere": 5421,
      "Yesterday": 5422,
      "aked": 5423,
      "getic": 5424,
      "fear": 5425,
      "lored": 5426,
      "unbelievable": 5427,
      "upon": 5428,
      "Nobody": 5429,
      "tools": 5430,
      "gee": 5431,
      "aks": 5432,
      "cker": 5433,
      "amen": 5434,
      "trous": 5435,
      "however": 5436,
      "twin": 5437,
      "pregn": 5438,
      "aving": 5439,
      "liter": 5440,
      "mornings": 5441,
      "mustn": 5442,
      "drug": 5443,
      "fewer": 5444,
      "trips": 5445,
      "handling": 5446,
      "drives": 5447,
      "tablets": 5448,
      "skating": 5449,
      "speakers": 5450,
      "addicted": 5451,
      "reality": 5452,
      "woke": 5453,
      "Neither": 5454,
      "prescribe": 5455,
      "foundation": 5456,
      "cookies": 5457,
      "ailed": 5458,
      "humor": 5459,
      "awesome": 5460,
      "streets": 5461,
      "joining": 5462,
      "Steve": 5463,
      "succeed": 5464,
      "dropped": 5465,
      "tificates": 5466,
      "fashioned": 5467,
      "steps": 5468,
      "developing": 5469,
      "actions": 5470,
      "organic": 5471,
      "currently": 5472,
      "rolls": 5473,
      "energetic": 5474,
      "employed": 5475,
      "writer": 5476,
      "quarters": 5477,
      "collecting": 5478,
      "confirmation": 5479,
      "challenge": 5480,
      "scene": 5481,
      "bidden": 5482,
      "Indian": 5483,
      "Indeed": 5484,
      "engineer": 5485,
      "destroy": 5486,
      "nuts": 5487,
      "Sara": 5488,
      "cotton": 5489,
      "corporate": 5490,
      "robb": 5491,
      "delayed": 5492,
      "breathing": 5493,
      "difficulty": 5494,
      "multi": 5495,
      "passenger": 5496,
      "Travel": 5497,
      "religious": 5498,
      "gambling": 5499,
      "mirror": 5500,
      "beside": 5501,
      "favourite": 5502,
      "massage": 5503,
      "waist": 5504,
      "procedure": 5505,
      "Certificate": 5506,
      "compensation": 5507,
      "Africa": 5508,
      "shooting": 5509,
      "arranged": 5510,
      "Sydney": 5511,
      "vacuum": 5512,
      "Birth": 5513,
      "Foreign": 5514,
      "investig": 5515,
      "behavior": 5516,
      "gossi": 5517,
      "Valentine": 5518,
      "lonely": 5519,
      "grateful": 5520,
      "Twenty": 5521,
      "enthusi": 5522,
      "trousers": 5523,
      "38": 5524,
      "600": 5525,
      "98": 5526,
      "::": 5527,
      "Au": 5528,
      "Aw": 5529,
      "Apple": 5530,
      "CE": 5531,
      "Cal": 5532,
      "Coffee": 5533,
      "Dear": 5534,
      "Fif": 5535,
      "HR": 5536,
      "Ham": 5537,
      "Lea": 5538,
      "March": 5539,
      "Nick": 5540,
      "Sons": 5541,
      "Tina": 5542,
      "athe": 5543,
      "bachelor": 5544,
      "cit": 5545,
      "east": 5546,
      "ged": 5547,
      "gall": 5548,
      "gather": 5549,
      "gross": 5550,
      "las": 5551,
      "lamb": 5552,
      "mild": 5553,
      "op": 5554,
      "oce": 5555,
      "pam": 5556,
      "rash": 5557,
      "racket": 5558,
      "stood": 5559,
      "walt": 5560,
      "zone": 5561,
      "info": 5562,
      "relieve": 5563,
      "remove": 5564,
      "refresh": 5565,
      "anic": 5566,
      "atmosphere": 5567,
      "envelo": 5568,
      "eti": 5569,
      "coach": 5570,
      "lying": 5571,
      "iry": 5572,
      "shan": 5573,
      "ferences": 5574,
      "hop": 5575,
      "delight": 5576,
      "unhappy": 5577,
      "unfair": 5578,
      "plates": 5579,
      "quake": 5580,
      "geo": 5581,
      "owner": 5582,
      "bush": 5583,
      "bump": 5584,
      "afterwards": 5585,
      "calend": 5586,
      "dip": 5587,
      "dizzy": 5588,
      "impact": 5589,
      "Couldn": 5590,
      "minded": 5591,
      "lux": 5592,
      "talks": 5593,
      "path": 5594,
      "rub": 5595,
      "supper": 5596,
      "surfing": 5597,
      "breaking": 5598,
      "hearing": 5599,
      "lowest": 5600,
      "create": 5601,
      "steam": 5602,
      "lley": 5603,
      "riding": 5604,
      "ridiculous": 5605,
      "specialty": 5606,
      "farm": 5607,
      "Star": 5608,
      "although": 5609,
      "frag": 5610,
      "slept": 5611,
      "departments": 5612,
      "buildings": 5613,
      "pairs": 5614,
      "advanced": 5615,
      "joined": 5616,
      "fallen": 5617,
      "attending": 5618,
      "attended": 5619,
      "sofa": 5620,
      "drove": 5621,
      "benefic": 5622,
      "neighbour": 5623,
      "balcon": 5624,
      "opera": 5625,
      "directions": 5626,
      "arrangement": 5627,
      "carrying": 5628,
      "Maria": 5629,
      "burning": 5630,
      "printed": 5631,
      "dedu": 5632,
      "issues": 5633,
      "stressful": 5634,
      "pulled": 5635,
      "jumped": 5636,
      "chatting": 5637,
      "Follow": 5638,
      "Huh": 5639,
      "bothering": 5640,
      "Consu": 5641,
      "creative": 5642,
      "destination": 5643,
      "structure": 5644,
      "branches": 5645,
      "spirit": 5646,
      "audience": 5647,
      "vacant": 5648,
      "encourage": 5649,
      "strength": 5650,
      "political": 5651,
      "established": 5652,
      "Honda": 5653,
      "allerg": 5654,
      "Single": 5655,
      "predic": 5656,
      "School": 5657,
      "wireless": 5658,
      "chemistry": 5659,
      "Emily": 5660,
      "thrill": 5661,
      "College": 5662,
      "moisturi": 5663,
      "lliant": 5664,
      "aluminum": 5665,
      "identification": 5666,
      "amenities": 5667,
      "Birthday": 5668,
      "Aha": 5669,
      "Bl": 5670,
      "Chi": 5671,
      "Cash": 5672,
      "Ed": 5673,
      "Either": 5674,
      "II": 5675,
      "Mal": 5676,
      "Mad": 5677,
      "NT": 5678,
      "Scot": 5679,
      "Wr": 5680,
      "Yi": 5681,
      "Ze": 5682,
      "crush": 5683,
      "equal": 5684,
      "equi": 5685,
      "fans": 5686,
      "lation": 5687,
      "mask": 5688,
      "pour": 5689,
      "pul": 5690,
      "ration": 5691,
      "sor": 5692,
      "sink": 5693,
      "tap": 5694,
      "tub": 5695,
      "umber": 5696,
      "wool": 5697,
      "inj": 5698,
      "itar": 5699,
      "seldom": 5700,
      "leaf": 5701,
      "leaking": 5702,
      "solid": 5703,
      "liest": 5704,
      "cher": 5705,
      "covers": 5706,
      "rose": 5707,
      "cance": 5708,
      "shown": 5709,
      "antly": 5710,
      "pei": 5711,
      "exist": 5712,
      "raised": 5713,
      "plumb": 5714,
      "Nope": 5715,
      "convin": 5716,
      "needn": 5717,
      "hip": 5718,
      "joke": 5719,
      "overnight": 5720,
      "actual": 5721,
      "click": 5722,
      "managers": 5723,
      "stocks": 5724,
      "duck": 5725,
      "internal": 5726,
      "diam": 5727,
      "ademic": 5728,
      "Read": 5729,
      "iously": 5730,
      "suppliers": 5731,
      "surface": 5732,
      "curtain": 5733,
      "obje": 5734,
      "largest": 5735,
      "matters": 5736,
      "Doesn": 5737,
      "prior": 5738,
      "filing": 5739,
      "camping": 5740,
      "pardon": 5741,
      "Mont": 5742,
      "maintenance": 5743,
      "packages": 5744,
      "confirmed": 5745,
      "tasty": 5746,
      "detailed": 5747,
      "allowance": 5748,
      "postcards": 5749,
      "metal": 5750,
      "conditioner": 5751,
      "instance": 5752,
      "vegetable": 5753,
      "saved": 5754,
      "designs": 5755,
      "designer": 5756,
      "honestly": 5757,
      "generation": 5758,
      "garbage": 5759,
      "midnight": 5760,
      "Holly": 5761,
      "Taipei": 5762,
      "techni": 5763,
      "websites": 5764,
      "patience": 5765,
      "baseball": 5766,
      "approval": 5767,
      "employment": 5768,
      "steamed": 5769,
      "honeymoon": 5770,
      "Micro": 5771,
      "relationships": 5772,
      "smells": 5773,
      "storage": 5774,
      "Airlines": 5775,
      "thorough": 5776,
      "toothache": 5777,
      "organizing": 5778,
      "samples": 5779,
      "tuition": 5780,
      "society": 5781,
      "target": 5782,
      "initial": 5783,
      "chosen": 5784,
      "trend": 5785,
      "representative": 5786,
      "knock": 5787,
      "strategy": 5788,
      "junior": 5789,
      "methods": 5790,
      "platform": 5791,
      "niece": 5792,
      "influence": 5793,
      "detective": 5794,
      "vitamins": 5795,
      "length": 5796,
      "carrots": 5797,
      "Contin": 5798,
      "Drive": 5799,
      "Palace": 5800,
      "Women": 5801,
      "thirsty": 5802,
      "marvelous": 5803,
      "Leave": 5804,
      "waltz": 5805,
      "calendar": 5806,
      "plumbing": 5807,
      "Ber": 5808,
      "DD": 5809,
      "Des": 5810,
      "Kit": 5811,
      "Plus": 5812,
      "Ru": 5813,
      "Tang": 5814,
      "bare": 5815,
      "bound": 5816,
      "dise": 5817,
      "gay": 5818,
      "imb": 5819,
      "ky": 5820,
      "kin": 5821,
      "lag": 5822,
      "nur": 5823,
      "uck": 5824,
      "vase": 5825,
      "via": 5826,
      "ya": 5827,
      "threat": 5828,
      "rele": 5829,
      "tore": 5830,
      "toes": 5831,
      "towel": 5832,
      "itute": 5833,
      "hell": 5834,
      "heels": 5835,
      "stro": 5836,
      "arrow": 5837,
      "oosing": 5838,
      "aspect": 5839,
      "aspir": 5840,
      "aland": 5841,
      "wealth": 5842,
      "wels": 5843,
      "robe": 5844,
      "tires": 5845,
      "tips": 5846,
      "worn": 5847,
      "urt": 5848,
      "indic": 5849,
      "demon": 5850,
      "definite": 5851,
      "perman": 5852,
      "Doll": 5853,
      "plot": 5854,
      "plug": 5855,
      "contr": 5856,
      "hike": 5857,
      "workshop": 5858,
      "resist": 5859,
      "bull": 5860,
      "ief": 5861,
      "lottery": 5862,
      "guard": 5863,
      "wholes": 5864,
      "marked": 5865,
      "rental": 5866,
      "meantime": 5867,
      "dislike": 5868,
      "disagree": 5869,
      "miser": 5870,
      "learnt": 5871,
      "booking": 5872,
      "bookstore": 5873,
      "gged": 5874,
      "highway": 5875,
      "century": 5876,
      "surf": 5877,
      "surg": 5878,
      "Alt": 5879,
      "realized": 5880,
      "lesson": 5881,
      "countryside": 5882,
      "Johnny": 5883,
      "banking": 5884,
      "puzz": 5885,
      "thirteen": 5886,
      "favorable": 5887,
      "birds": 5888,
      "suburb": 5889,
      "sence": 5890,
      "sells": 5891,
      "sleepy": 5892,
      "arrives": 5893,
      "boards": 5894,
      "floors": 5895,
      "respond": 5896,
      "response": 5897,
      "landlor": 5898,
      "weights": 5899,
      "posted": 5900,
      "contracts": 5901,
      "wheel": 5902,
      "Brad": 5903,
      "followed": 5904,
      "advise": 5905,
      "polite": 5906,
      "treated": 5907,
      "treatment": 5908,
      "temper": 5909,
      "sorts": 5910,
      "dancer": 5911,
      "grandfather": 5912,
      "basement": 5913,
      "Julie": 5914,
      "economics": 5915,
      "appropri": 5916,
      "steaks": 5917,
      "capable": 5918,
      "processing": 5919,
      "Management": 5920,
      "calcul": 5921,
      "fighting": 5922,
      "tender": 5923,
      "propose": 5924,
      "Haha": 5925,
      "ysis": 5926,
      "communicate": 5927,
      "brilliant": 5928,
      "circ": 5929,
      "faith": 5930,
      "safer": 5931,
      "Class": 5932,
      "Taxi": 5933,
      "sheets": 5934,
      "North": 5935,
      "provided": 5936,
      "regarding": 5937,
      "relative": 5938,
      "British": 5939,
      "depending": 5940,
      "grill": 5941,
      "automatic": 5942,
      "announce": 5943,
      "subscription": 5944,
      "Disney": 5945,
      "Channel": 5946,
      "analysis": 5947,
      "crackers": 5948,
      "frame": 5949,
      "Basically": 5950,
      "fabulous": 5951,
      "recognize": 5952,
      "cuisine": 5953,
      "mortgage": 5954,
      "Seattle": 5955,
      "arently": 5956,
      "balcony": 5957,
      "Zealand": 5958,
      "diamond": 5959,
      "Agency": 5960,
      "Asian": 5961,
      "Bea": 5962,
      "Back": 5963,
      "DE": 5964,
      "Dal": 5965,
      "Gold": 5966,
      "Hal": 5967,
      "Hall": 5968,
      "Jerry": 5969,
      "Laur": 5970,
      "Mus": 5971,
      "Miao": 5972,
      "Non": 5973,
      "Pay": 5974,
      "Rel": 5975,
      "Sp": 5976,
      "Sha": 5977,
      "TO": 5978,
      "Thail": 5979,
      "Van": 5980,
      "bac": 5981,
      "cow": 5982,
      "cav": 5983,
      "ered": 5984,
      "fas": 5985,
      "gown": 5986,
      "hh": 5987,
      "hook": 5988,
      "hum": 5989,
      "kne": 5990,
      "kiss": 5991,
      "lings": 5992,
      "mary": 5993,
      "maker": 5994,
      "rical": 5995,
      "sources": 5996,
      "upper": 5997,
      "wit": 5998,
      "zed": 5999,
      "iner": 6000,
      "inqu": 6001,
      "release": 6002,
      "reference": 6003,
      "erob": 6004,
      "ites": 6005,
      "ester": 6006,
      "stances": 6007,
      "enroll": 6008,
      "behave": 6009,
      "beers": 6010,
      "former": 6011,
      "alive": 6012,
      "edition": 6013,
      "choosing": 6014,
      "ots": 6015,
      "otic": 6016,
      "ida": 6017,
      "idential": 6018,
      "coins": 6019,
      "rific": 6020,
      "neat": 6021,
      "tiles": 6022,
      "ador": 6023,
      "advis": 6024,
      "suspect": 6025,
      "peel": 6026,
      "Thirty": 6027,
      "explan": 6028,
      "exceed": 6029,
      "mush": 6030,
      "hier": 6031,
      "ulance": 6032,
      "bled": 6033,
      "bleeding": 6034,
      "igno": 6035,
      "Anderson": 6036,
      "spill": 6037,
      "committed": 6038,
      "istics": 6039,
      "clar": 6040,
      "guitar": 6041,
      "capt": 6042,
      "tense": 6043,
      "cara": 6044,
      "closes": 6045,
      "pharm": 6046,
      "intosh": 6047,
      "Eng": 6048,
      "classic": 6049,
      "turns": 6050,
      "housework": 6051,
      "ully": 6052,
      "drivers": 6053,
      "filet": 6054,
      "throughout": 6055,
      "Stay": 6056,
      "stranger": 6057,
      "interviews": 6058,
      "sensitive": 6059,
      "passes": 6060,
      "painful": 6061,
      "mascara": 6062,
      "quicker": 6063,
      "extent": 6064,
      "profic": 6065,
      "IBM": 6066,
      "discussed": 6067,
      "polish": 6068,
      "Janice": 6069,
      "January": 6070,
      "tempor": 6071,
      "garlic": 6072,
      "Accord": 6073,
      "surprising": 6074,
      "truly": 6075,
      "answers": 6076,
      "operator": 6077,
      "organize": 6078,
      "hanging": 6079,
      "winning": 6080,
      "199": 6081,
      "figured": 6082,
      "prints": 6083,
      "scient": 6084,
      "accidentally": 6085,
      "viding": 6086,
      "appeal": 6087,
      "complaint": 6088,
      "duties": 6089,
      "wooden": 6090,
      "kilos": 6091,
      "created": 6092,
      "emails": 6093,
      "earthquake": 6094,
      "deserves": 6095,
      "Seriously": 6096,
      "exports": 6097,
      "cooperate": 6098,
      "cartons": 6099,
      "efficiency": 6100,
      "strike": 6101,
      "assigned": 6102,
      "brave": 6103,
      "scratch": 6104,
      "selected": 6105,
      "lifest": 6106,
      "initi": 6107,
      "Korea": 6108,
      "folk": 6109,
      "dorm": 6110,
      "cancelled": 6111,
      "obviously": 6112,
      "sisters": 6113,
      "catalogue": 6114,
      "ninety": 6115,
      "manufacturer": 6116,
      "stereo": 6117,
      "negative": 6118,
      "hesitate": 6119,
      "buffet": 6120,
      "counse": 6121,
      "robbery": 6122,
      "aspirin": 6123,
      "permanent": 6124,
      "miserable": 6125,
      "Altadena": 6126,
      "circum": 6127,
      "Beaut": 6128,
      "Laura": 6129,
      "Thailand": 6130,
      "App": 6131,
      "Ask": 6132,
      "Bang": 6133,
      "Cook": 6134,
      "Cap": 6135,
      "Da": 6136,
      "During": 6137,
      "EDD": 6138,
      "Fantastic": 6139,
      "Jill": 6140,
      "Judy": 6141,
      "Lad": 6142,
      "Lake": 6143,
      "MS": 6144,
      "Mid": 6145,
      "Mine": 6146,
      "Mil": 6147,
      "Museum": 6148,
      "Oo": 6149,
      "Ping": 6150,
      "Si": 6151,
      "Sav": 6152,
      "Tw": 6153,
      "Talk": 6154,
      "bs": 6155,
      "bin": 6156,
      "bone": 6157,
      "dd": 6158,
      "eager": 6159,
      "fers": 6160,
      "ib": 6161,
      "loo": 6162,
      "mal": 6163,
      "mare": 6164,
      "narrow": 6165,
      "ored": 6166,
      "shave": 6167,
      "sac": 6168,
      "tid": 6169,
      "tance": 6170,
      "threw": 6171,
      "inner": 6172,
      "atic": 6173,
      "island": 6174,
      "helle": 6175,
      "semin": 6176,
      "owder": 6177,
      "ensure": 6178,
      "chilly": 6179,
      "ution": 6180,
      "idents": 6181,
      "cope": 6182,
      "ripped": 6183,
      "outgoing": 6184,
      "aces": 6185,
      "academic": 6186,
      "irley": 6187,
      "Its": 6188,
      "summ": 6189,
      "termin": 6190,
      "agging": 6191,
      "loso": 6192,
      "washer": 6193,
      "exit": 6194,
      "deals": 6195,
      "promp": 6196,
      "unique": 6197,
      "entry": 6198,
      "constru": 6199,
      "quote": 6200,
      "illa": 6201,
      "trash": 6202,
      "cheated": 6203,
      "couples": 6204,
      "ouses": 6205,
      "causes": 6206,
      "greatly": 6207,
      "courage": 6208,
      "mathem": 6209,
      "situ": 6210,
      "whose": 6211,
      "dili": 6212,
      "asks": 6213,
      "hardware": 6214,
      "lawn": 6215,
      "Coke": 6216,
      "immig": 6217,
      "tries": 6218,
      "trial": 6219,
      "handbag": 6220,
      "earliest": 6221,
      "charity": 6222,
      "sidewalk": 6223,
      "fiance": 6224,
      "cleans": 6225,
      "trained": 6226,
      "Anytime": 6227,
      "signature": 6228,
      "credits": 6229,
      "expectations": 6230,
      "positions": 6231,
      "crimin": 6232,
      "rainy": 6233,
      "cub": 6234,
      "billion": 6235,
      "Until": 6236,
      "valid": 6237,
      "freed": 6238,
      "holders": 6239,
      "factors": 6240,
      "Shirley": 6241,
      "honors": 6242,
      "returned": 6243,
      "arrival": 6244,
      "Interest": 6245,
      "published": 6246,
      "blackout": 6247,
      "grape": 6248,
      "systems": 6249,
      "decisions": 6250,
      "brothers": 6251,
      "fields": 6252,
      "stronger": 6253,
      "organized": 6254,
      "affordable": 6255,
      "Kelly": 6256,
      "assistance": 6257,
      "distri": 6258,
      "disturb": 6259,
      "cheapest": 6260,
      "lecture": 6261,
      "approved": 6262,
      "nonsmoking": 6263,
      "salads": 6264,
      "Michelle": 6265,
      "reminds": 6266,
      "reminding": 6267,
      "complaints": 6268,
      "naturally": 6269,
      "notebook": 6270,
      "borrowed": 6271,
      "activity": 6272,
      "scores": 6273,
      "Times": 6274,
      "buddy": 6275,
      "Robin": 6276,
      "engineering": 6277,
      "Macintosh": 6278,
      "documentary": 6279,
      "ambulance": 6280,
      "physics": 6281,
      "robbed": 6282,
      "preparation": 6283,
      "reduced": 6284,
      "argue": 6285,
      "scram": 6286,
      "combination": 6287,
      "Mexican": 6288,
      "arrested": 6289,
      "automatically": 6290,
      "novels": 6291,
      "Francisco": 6292,
      "scarf": 6293,
      "tango": 6294,
      "nails": 6295,
      "symptoms": 6296,
      "flavors": 6297,
      "bungee": 6298,
      "categ": 6299,
      "hunting": 6300,
      "occupation": 6301,
      "shift": 6302,
      "historical": 6303,
      "strawberry": 6304,
      "coupons": 6305,
      "victi": 6306,
      "intellig": 6307,
      "hamburger": 6308,
      "Greek": 6309,
      "Hawai": 6310,
      "concentrate": 6311,
      "insects": 6312,
      "gossip": 6313,
      "lleyball": 6314,
      "convinced": 6315,
      "barely": 6316,
      "stroke": 6317,
      "surgery": 6318,
      "Savings": 6319,
      "1000": 6320,
      "3rd": 6321,
      "66": 6322,
      "Again": 6323,
      "Cross": 6324,
      "Flor": 6325,
      "Having": 6326,
      "Jor": 6327,
      "Jing": 6328,
      "Lit": 6329,
      "Later": 6330,
      "Much": 6331,
      "Na": 6332,
      "Nine": 6333,
      "Pas": 6334,
      "Pac": 6335,
      "Phi": 6336,
      "Play": 6337,
      "Sou": 6338,
      "Sum": 6339,
      "Tit": 6340,
      "Thai": 6341,
      "Under": 6342,
      "Wood": 6343,
      "Wish": 6344,
      "aid": 6345,
      "aerob": 6346,
      "bust": 6347,
      "bend": 6348,
      "ev": 6349,
      "fridge": 6350,
      "hiring": 6351,
      "link": 6352,
      "mbo": 6353,
      "ost": 6354,
      "pure": 6355,
      "patch": 6356,
      "rand": 6357,
      "rist": 6358,
      "rang": 6359,
      "vince": 6360,
      "vices": 6361,
      "wave": 6362,
      "wines": 6363,
      "yan": 6364,
      "thy": 6365,
      "thand": 6366,
      "inting": 6367,
      "inqui": 6368,
      "rem": 6369,
      "refill": 6370,
      "retired": 6371,
      "resolution": 6372,
      "towels": 6373,
      "iser": 6374,
      "ita": 6375,
      "heating": 6376,
      "veled": 6377,
      "stressed": 6378,
      "lean": 6379,
      "keeper": 6380,
      "asing": 6381,
      "albu": 6382,
      "editor": 6383,
      "wears": 6384,
      "lian": 6385,
      "dol": 6386,
      "cosme": 6387,
      "rial": 6388,
      "outdoor": 6389,
      "tile": 6390,
      "tied": 6391,
      "aby": 6392,
      "acity": 6393,
      "accur": 6394,
      "adium": 6395,
      "shoot": 6396,
      "urity": 6397,
      "excl": 6398,
      "expen": 6399,
      "ased": 6400,
      "raw": 6401,
      "united": 6402,
      "perform": 6403,
      "ender": 6404,
      "ults": 6405,
      "comedy": 6406,
      "cheating": 6407,
      "cheque": 6408,
      "reeze": 6409,
      "overdraft": 6410,
      "comer": 6411,
      "pretend": 6412,
      "eking": 6413,
      "lotion": 6414,
      "manners": 6415,
      "assy": 6416,
      "backpack": 6417,
      "stole": 6418,
      "traveled": 6419,
      "paycheck": 6420,
      "monitor": 6421,
      "sert": 6422,
      "buyer": 6423,
      "closing": 6424,
      "intern": 6425,
      "interrupt": 6426,
      "blank": 6427,
      "airline": 6428,
      "Allen": 6429,
      "careless": 6430,
      "cardboard": 6431,
      "ilding": 6432,
      "stays": 6433,
      "matched": 6434,
      "tics": 6435,
      "headed": 6436,
      "ports": 6437,
      "differently": 6438,
      "collections": 6439,
      "oking": 6440,
      "musical": 6441,
      "mails": 6442,
      "sensible": 6443,
      "sixteen": 6444,
      "Life": 6445,
      "sellers": 6446,
      "symbo": 6447,
      "facilities": 6448,
      "southern": 6449,
      "tasted": 6450,
      "programmes": 6451,
      "landed": 6452,
      "Tech": 6453,
      "portion": 6454,
      "copier": 6455,
      "flag": 6456,
      "attendance": 6457,
      "Step": 6458,
      "receipts": 6459,
      "Trade": 6460,
      "photography": 6461,
      "medication": 6462,
      "refuse": 6463,
      "reflect": 6464,
      "Boy": 6465,
      "slipped": 6466,
      "elected": 6467,
      "Marry": 6468,
      "hospitality": 6469,
      "compete": 6470,
      "matches": 6471,
      "saves": 6472,
      "quarrel": 6473,
      "fuel": 6474,
      "improvement": 6475,
      "jamin": 6476,
      "immediate": 6477,
      "relief": 6478,
      "polling": 6479,
      "Carl": 6480,
      "Italy": 6481,
      "creating": 6482,
      "decorate": 6483,
      "fingers": 6484,
      "circul": 6485,
      "stamp": 6486,
      "Leo": 6487,
      "vacancy": 6488,
      "Benjamin": 6489,
      "argument": 6490,
      "candidates": 6491,
      "violence": 6492,
      "lobster": 6493,
      "Building": 6494,
      "Christi": 6495,
      "philoso": 6496,
      "collar": 6497,
      "weaknesses": 6498,
      "flea": 6499,
      "seventy": 6500,
      "Medium": 6501,
      "Claim": 6502,
      "enterprise": 6503,
      "essential": 6504,
      "frustrating": 6505,
      "Yellow": 6506,
      "wrapped": 6507,
      "brochure": 6508,
      "purchasing": 6509,
      "pregnant": 6510,
      "ocean": 6511,
      "pamph": 6512,
      "injured": 6513,
      "canceled": 6514,
      "Microsoft": 6515,
      "Continued": 6516,
      "suburbs": 6517,
      "fascin": 6518,
      "freedom": 6519,
      "Hawaii": 6520,
      "Jordan": 6521,
      "Pacific": 6522,
      "expense": 6523,
      "110": 6524,
      "48": 6525,
      "67": 6526,
      "85": 6527,
      "900": 6528,
      "AC": 6529,
      "Aut": 6530,
      "Around": 6531,
      "Asia": 6532,
      "CV": 6533,
      "Cant": 6534,
      "Dor": 6535,
      "Eric": 6536,
      "Lat": 6537,
      "Lar": 6538,
      "Las": 6539,
      "NBA": 6540,
      "Ouch": 6541,
      "Part": 6542,
      "Ryan": 6543,
      "Stra": 6544,
      "Spain": 6545,
      "Size": 6546,
      "Tex": 6547,
      "Teach": 6548,
      "Yo": 6549,
      "aled": 6550,
      "blog": 6551,
      "cen": 6552,
      "dread": 6553,
      "eli": 6554,
      "elder": 6555,
      "fli": 6556,
      "groom": 6557,
      "iest": 6558,
      "jazz": 6559,
      "lates": 6560,
      "mac": 6561,
      "oline": 6562,
      "py": 6563,
      "pace": 6564,
      "powder": 6565,
      "sive": 6566,
      "tat": 6567,
      "vant": 6568,
      "whit": 6569,
      "ane": 6570,
      "ancing": 6571,
      "theast": 6572,
      "theory": 6573,
      "atics": 6574,
      "vember": 6575,
      "sti": 6576,
      "leis": 6577,
      "andy": 6578,
      "bered": 6579,
      "asha": 6580,
      "alley": 6581,
      "som": 6582,
      "liday": 6583,
      "chick": 6584,
      "chief": 6585,
      "ghost": 6586,
      "colored": 6587,
      "rier": 6588,
      "rious": 6589,
      "sung": 6590,
      "suffic": 6591,
      "ource": 6592,
      "fellow": 6593,
      "logo": 6594,
      "deb": 6595,
      "November": 6596,
      "conserv": 6597,
      "endy": 6598,
      "poison": 6599,
      "iger": 6600,
      "hydr": 6601,
      "jokes": 6602,
      "chedu": 6603,
      "overall": 6604,
      "overhead": 6605,
      "herself": 6606,
      "apped": 6607,
      "brace": 6608,
      "stopping": 6609,
      "serves": 6610,
      "interpre": 6611,
      "blond": 6612,
      "nightmare": 6613,
      "discovered": 6614,
      "label": 6615,
      "classified": 6616,
      "Todd": 6617,
      "rum": 6618,
      "handic": 6619,
      "earrings": 6620,
      "thoughts": 6621,
      "matt": 6622,
      "maturity": 6623,
      "imports": 6624,
      "steward": 6625,
      "freezing": 6626,
      "cycling": 6627,
      "signific": 6628,
      "jewel": 6629,
      "balls": 6630,
      "Stars": 6631,
      "fourteen": 6632,
      "chap": 6633,
      "subst": 6634,
      "sixth": 6635,
      "passing": 6636,
      "cleaner": 6637,
      "painted": 6638,
      "tours": 6639,
      "confusing": 6640,
      "sweep": 6641,
      "awake": 6642,
      "allows": 6643,
      "atory": 6644,
      "flick": 6645,
      "attendant": 6646,
      "unex": 6647,
      "generous": 6648,
      "drops": 6649,
      "ladder": 6650,
      "Holiday": 6651,
      "dances": 6652,
      "Comput": 6653,
      "leads": 6654,
      "profession": 6655,
      "brands": 6656,
      "Mostly": 6657,
      "competitors": 6658,
      "introduced": 6659,
      "satisf": 6660,
      "distin": 6661,
      "dreamed": 6662,
      "fluently": 6663,
      "continu": 6664,
      "180": 6665,
      "messed": 6666,
      "capacity": 6667,
      "Post": 6668,
      "equally": 6669,
      "estimate": 6670,
      "deadlines": 6671,
      "spoke": 6672,
      "spoil": 6673,
      "divided": 6674,
      "crowd": 6675,
      "Huang": 6676,
      "proposed": 6677,
      "exhibits": 6678,
      "powerful": 6679,
      "storms": 6680,
      "Art": 6681,
      "tailor": 6682,
      "banan": 6683,
      "banquet": 6684,
      "sharing": 6685,
      "regards": 6686,
      "21st": 6687,
      "Honest": 6688,
      "tricks": 6689,
      "Reser": 6690,
      "peaceful": 6691,
      "frequent": 6692,
      "dumplings": 6693,
      "grocer": 6694,
      "Economy": 6695,
      "analy": 6696,
      "Sales": 6697,
      "Windows": 6698,
      "folks": 6699,
      "Williams": 6700,
      "Jessica": 6701,
      "shorthand": 6702,
      "sneakers": 6703,
      "shouting": 6704,
      "athletes": 6705,
      "photographs": 6706,
      "rewarding": 6707,
      "frozen": 6708,
      "complexion": 6709,
      "Diana": 6710,
      "enthusiastic": 6711,
      "CEO": 6712,
      "Calm": 6713,
      "curtains": 6714,
      "disease": 6715,
      "contrary": 6716,
      "landlord": 6717,
      "appropriate": 6718,
      "Dalian": 6719,
      "explanation": 6720,
      "lifestyle": 6721,
      "counselor": 6722,
      "Florida": 6723,
      "Titanic": 6724,
      "Autumn": 6725,
      "Canton": 6726,
      "tattoo": 6727,
      "sufficient": 6728,
      "37": 6729,
      "42": 6730,
      "5th": 6731,
      "CC": 6732,
      "Cus": 6733,
      "Cup": 6734,
      "Ear": 6735,
      "Ent": 6736,
      "ETV": 6737,
      "Easter": 6738,
      "Gra": 6739,
      "Hang": 6740,
      "IK": 6741,
      "Kim": 6742,
      "Lots": 6743,
      "MP": 6744,
      "Ming": 6745,
      "Must": 6746,
      "Mag": 6747,
      "Nah": 6748,
      "Pan": 6749,
      "Peking": 6750,
      "Que": 6751,
      "Set": 6752,
      "Smo": 6753,
      "Tv": 6754,
      "Ton": 6755,
      "Terry": 6756,
      "Use": 6757,
      "Whe": 6758,
      "Winter": 6759,
      "cti": 6760,
      "cery": 6761,
      "diction": 6762,
      "fus": 6763,
      "gree": 6764,
      "gments": 6765,
      "garet": 6766,
      "jail": 6767,
      "lting": 6768,
      "lamp": 6769,
      "muse": 6770,
      "mical": 6771,
      "mbered": 6772,
      "pha": 6773,
      "packet": 6774,
      "rag": 6775,
      "sion": 6776,
      "swo": 6777,
      "swear": 6778,
      "slack": 6779,
      "tank": 6780,
      "vouch": 6781,
      "intense": 6782,
      "ream": 6783,
      "reporter": 6784,
      "toward": 6785,
      "orn": 6786,
      "orient": 6787,
      "mere": 6788,
      "sta": 6789,
      "stones": 6790,
      "leak": 6791,
      "assed": 6792,
      "lds": 6793,
      "wipe": 6794,
      "lips": 6795,
      "chill": 6796,
      "verse": 6797,
      "coin": 6798,
      "ades": 6799,
      "administration": 6800,
      "adults": 6801,
      "tering": 6802,
      "ambit": 6803,
      "moves": 6804,
      "pear": 6805,
      "someday": 6806,
      "lover": 6807,
      "providing": 6808,
      "unci": 6809,
      "useless": 6810,
      "consum": 6811,
      "quis": 6812,
      "ctual": 6813,
      "cking": 6814,
      "estate": 6815,
      "resign": 6816,
      "joint": 6817,
      "Andrew": 6818,
      "spacious": 6819,
      "couch": 6820,
      "Isa": 6821,
      "boiled": 6822,
      "comfort": 6823,
      "clou": 6824,
      "manic": 6825,
      "gum": 6826,
      "assing": 6827,
      "sheep": 6828,
      "maid": 6829,
      "Chang": 6830,
      "happier": 6831,
      "penalty": 6832,
      "fined": 6833,
      "finals": 6834,
      "ignon": 6835,
      "airsick": 6836,
      "puts": 6837,
      "angers": 6838,
      "Pleased": 6839,
      "High": 6840,
      "phon": 6841,
      "Inn": 6842,
      "classroom": 6843,
      "salty": 6844,
      "ruce": 6845,
      "rumor": 6846,
      "handy": 6847,
      "differences": 6848,
      "ashes": 6849,
      "atherine": 6850,
      "Nowadays": 6851,
      "watches": 6852,
      "shared": 6853,
      "importance": 6854,
      "creation": 6855,
      "produc": 6856,
      "ctors": 6857,
      "region": 6858,
      "speaker": 6859,
      "chopstick": 6860,
      "pected": 6861,
      "Ford": 6862,
      "fastest": 6863,
      "curly": 6864,
      "filling": 6865,
      "State": 6866,
      "walks": 6867,
      "20th": 6868,
      "suites": 6869,
      "sleeve": 6870,
      "solved": 6871,
      "founded": 6872,
      "appointments": 6873,
      "cooker": 6874,
      "warmer": 6875,
      "colorful": 6876,
      "certificates": 6877,
      "bandages": 6878,
      "crashed": 6879,
      "windy": 6880,
      "tourni": 6881,
      "dresses": 6882,
      "Shar": 6883,
      "appreciated": 6884,
      "cups": 6885,
      "vol": 6886,
      "volleyball": 6887,
      "flash": 6888,
      "eighty": 6889,
      "relaxation": 6890,
      "magn": 6891,
      "Trading": 6892,
      "advertised": 6893,
      "discounts": 6894,
      "successfully": 6895,
      "publicity": 6896,
      "Without": 6897,
      "bench": 6898,
      "professors": 6899,
      "Margaret": 6900,
      "introduction": 6901,
      "blos": 6902,
      "Cheer": 6903,
      "loading": 6904,
      "18th": 6905,
      "Lucky": 6906,
      "opinions": 6907,
      "employers": 6908,
      "scientific": 6909,
      "dreams": 6910,
      "complaining": 6911,
      "antique": 6912,
      "Australian": 6913,
      "bonuses": 6914,
      "negotiation": 6915,
      "spirits": 6916,
      "challenges": 6917,
      "ginger": 6918,
      "appearance": 6919,
      "assignment": 6920,
      "universe": 6921,
      "suffered": 6922,
      "establish": 6923,
      "shuttle": 6924,
      "smoothly": 6925,
      "religion": 6926,
      "announced": 6927,
      "gamble": 6928,
      "status": 6929,
      "understor": 6930,
      "occasionally": 6931,
      "efficiently": 6932,
      "grocery": 6933,
      "procedures": 6934,
      "Economics": 6935,
      "Korean": 6936,
      "feedback": 6937,
      "slightly": 6938,
      "harmful": 6939,
      "secure": 6940,
      "liquor": 6941,
      "constantly": 6942,
      "expanding": 6943,
      "revocable": 6944,
      "eventually": 6945,
      "Romans": 6946,
      "Brazil": 6947,
      "Opera": 6948,
      "chinese": 6949,
      "affairs": 6950,
      "landscape": 6951,
      "accommod": 6952,
      "pronunci": 6953,
      "Obama": 6954,
      "citiz": 6955,
      "Blue": 6956,
      "Hollywood": 6957,
      "relevant": 6958,
      "Half": 6959,
      "inquiry": 6960,
      "proficient": 6961,
      "circumstances": 6962,
      "Ladies": 6963,
      "prompt": 6964,
      "Interesting": 6965,
      "intelligent": 6966,
      "mattress": 6967,
      "stewardess": 6968,
      "Reserv": 6969,
      "Cantonese": 6970,
      "IKE": 6971,
      "museums": 6972,
      "swollen": 6973,
      "chopsticks": 6974,
      "tourniquet": 6975,
      "2000": 6976,
      "64": 6977,
      "7th": 6978,
      "99": 6979,
      "Big": 6980,
      "Bruce": 6981,
      "Di": 6982,
      "Dig": 6983,
      "Eli": 6984,
      "MB": 6985,
      "Mother": 6986,
      "NY": 6987,
      "Osc": 6988,
      "PA": 6989,
      "Pu": 6990,
      "Pen": 6991,
      "Pho": 6992,
      "Pass": 6993,
      "River": 6994,
      "Rachel": 6995,
      "Swe": 6996,
      "UK": 6997,
      "Visa": 6998,
      "Wendy": 6999,
      "biz": 7000,
      "dup": 7001,
      "dough": 7002,
      "eh": 7003,
      "fou": 7004,
      "fet": 7005,
      "gust": 7006,
      "kn": 7007,
      "kers": 7008,
      "loun": 7009,
      "mous": 7010,
      "pad": 7011,
      "rink": 7012,
      "signing": 7013,
      "tti": 7014,
      "tiny": 7015,
      "wound": 7016,
      "xious": 7017,
      "inspir": 7018,
      "rease": 7019,
      "rehen": 7020,
      "reconfirm": 7021,
      "anket": 7022,
      "anley": 7023,
      "atown": 7024,
      "onents": 7025,
      "stery": 7026,
      "entered": 7027,
      "beth": 7028,
      "becomes": 7029,
      "dot": 7030,
      "idi": 7031,
      "iding": 7032,
      "outdoors": 7033,
      "adap": 7034,
      "admission": 7035,
      "lyn": 7036,
      "mystery": 7037,
      "Wei": 7038,
      "sund": 7039,
      "feature": 7040,
      "Health": 7041,
      "pers": 7042,
      "permitted": 7043,
      "Doing": 7044,
      "plum": 7045,
      "convey": 7046,
      "workout": 7047,
      "workshops": 7048,
      "ineering": 7049,
      "aint": 7050,
      "romise": 7051,
      "compact": 7052,
      "compared": 7053,
      "newly": 7054,
      "cheek": 7055,
      "Soci": 7056,
      "priced": 7057,
      "prison": 7058,
      "twist": 7059,
      "precious": 7060,
      "premium": 7061,
      "weekly": 7062,
      "civil": 7063,
      "apparently": 7064,
      "Therefore": 7065,
      "ketch": 7066,
      "grant": 7067,
      "grace": 7068,
      "Thanksgiving": 7069,
      "carried": 7070,
      "intersection": 7071,
      "blanket": 7072,
      "integr": 7073,
      "torney": 7074,
      "disk": 7075,
      "disput": 7076,
      "dram": 7077,
      "drag": 7078,
      "drama": 7079,
      "learner": 7080,
      "supplier": 7081,
      "desire": 7082,
      "persons": 7083,
      "headaches": 7084,
      "10th": 7085,
      "invoking": 7086,
      "freeze": 7087,
      "cession": 7088,
      "contro": 7089,
      "wardrobe": 7090,
      "childhood": 7091,
      "Stanley": 7092,
      "ships": 7093,
      "cutting": 7094,
      "pupp": 7095,
      "ointment": 7096,
      "privac": 7097,
      "prizes": 7098,
      "sleeper": 7099,
      "examine": 7100,
      "rained": 7101,
      "healthier": 7102,
      "password": 7103,
      "travelers": 7104,
      "recipe": 7105,
      "factories": 7106,
      "salesman": 7107,
      "begins": 7108,
      "lane": 7109,
      "honored": 7110,
      "extro": 7111,
      "extend": 7112,
      "acceptance": 7113,
      "cashier": 7114,
      "posters": 7115,
      "cupboard": 7116,
      "foreigner": 7117,
      "porters": 7118,
      "suggested": 7119,
      "practise": 7120,
      "stuffed": 7121,
      "worthwhile": 7122,
      "leaded": 7123,
      "operating": 7124,
      "Billy": 7125,
      "aughty": 7126,
      "percentage": 7127,
      "competent": 7128,
      "delicate": 7129,
      "gaining": 7130,
      "burgers": 7131,
      "roller": 7132,
      "grandma": 7133,
      "improved": 7134,
      "environmental": 7135,
      "Cheers": 7136,
      "gasoline": 7137,
      "connections": 7138,
      "seasons": 7139,
      "Grant": 7140,
      "nicer": 7141,
      "dryer": 7142,
      "issued": 7143,
      "killer": 7144,
      "itching": 7145,
      "chocolates": 7146,
      "micro": 7147,
      "Taiwanese": 7148,
      "16th": 7149,
      "celebration": 7150,
      "sils": 7151,
      "coats": 7152,
      "jumping": 7153,
      "colleague": 7154,
      "levels": 7155,
      "involves": 7156,
      "Supp": 7157,
      "kilogram": 7158,
      "guaranteed": 7159,
      "rapid": 7160,
      "dozens": 7161,
      "17th": 7162,
      "Airline": 7163,
      "Airport": 7164,
      "yoga": 7165,
      "deserved": 7166,
      "Germany": 7167,
      "remembered": 7168,
      "achievement": 7169,
      "textbooks": 7170,
      "champion": 7171,
      "sandwiches": 7172,
      "emphas": 7173,
      "Personally": 7174,
      "hills": 7175,
      "Sandy": 7176,
      "cruise": 7177,
      "vacancies": 7178,
      "snacks": 7179,
      "combined": 7180,
      "Travell": 7181,
      "contribute": 7182,
      "installation": 7183,
      "browsing": 7184,
      "sweaters": 7185,
      "participate": 7186,
      "flew": 7187,
      "severe": 7188,
      "source": 7189,
      "Russian": 7190,
      "passionate": 7191,
      "Jean": 7192,
      "alternatives": 7193,
      "lungs": 7194,
      "executive": 7195,
      "delighted": 7196,
      "luxury": 7197,
      "wholesale": 7198,
      "Music": 7199,
      "ignore": 7200,
      "spilled": 7201,
      "temporary": 7202,
      "Oops": 7203,
      "situations": 7204,
      "diligent": 7205,
      "scrambled": 7206,
      "Summer": 7207,
      "inquire": 7208,
      "cosmetics": 7209,
      "Latin": 7210,
      "Straight": 7211,
      "conservative": 7212,
      "chedule": 7213,
      "jewelry": 7214,
      "unexpected": 7215,
      "groceries": 7216,
      "Smoking": 7217,
      "IKEA": 7218,
      "Oscars": 7219,
      "duplic": 7220,
      "lounge": 7221,
      "privacy": 7222,
      "87": 7223,
      "89": 7224,
      "Ay": 7225,
      "Adam": 7226,
      "Bre": 7227,
      "Broad": 7228,
      "Ca": 7229,
      "Cha": 7230,
      "Cam": 7231,
      "Cooper": 7232,
      "Dar": 7233,
      "Dark": 7234,
      "Darling": 7235,
      "Dinner": 7236,
      "EF": 7237,
      "Egy": 7238,
      "Easy": 7239,
      "Foods": 7240,
      "Garden": 7241,
      "Ir": 7242,
      "La": 7243,
      "Min": 7244,
      "Ni": 7245,
      "Number": 7246,
      "Oscar": 7247,
      "Pizza": 7248,
      "RE": 7249,
      "Sho": 7250,
      "Seven": 7251,
      "Still": 7252,
      "Store": 7253,
      "Tower": 7254,
      "Tiger": 7255,
      "Ver": 7256,
      "Vic": 7257,
      "Wal": 7258,
      "Water": 7259,
      "bou": 7260,
      "bing": 7261,
      "baking": 7262,
      "baker": 7263,
      "breeze": 7264,
      "cet": 7265,
      "eval": 7266,
      "eigh": 7267,
      "fles": 7268,
      "guts": 7269,
      "hong": 7270,
      "jack": 7271,
      "mouse": 7272,
      "nam": 7273,
      "nick": 7274,
      "naughty": 7275,
      "oy": 7276,
      "ole": 7277,
      "pill": 7278,
      "rit": 7279,
      "sess": 7280,
      "vary": 7281,
      "wars": 7282,
      "zard": 7283,
      "ounts": 7284,
      "thunderstor": 7285,
      "inno": 7286,
      "insured": 7287,
      "infection": 7288,
      "repayment": 7289,
      "recru": 7290,
      "reimb": 7291,
      "onest": 7292,
      "oral": 7293,
      "itious": 7294,
      "espres": 7295,
      "seated": 7296,
      "forced": 7297,
      "assu": 7298,
      "lig": 7299,
      "chart": 7300,
      "chron": 7301,
      "dose": 7302,
      "coinc": 7303,
      "yourselves": 7304,
      "rop": 7305,
      "actors": 7306,
      "gosh": 7307,
      "gomer": 7308,
      "Young": 7309,
      "suited": 7310,
      "teries": 7311,
      "amounts": 7312,
      "modest": 7313,
      "Thou": 7314,
      "loses": 7315,
      "ankle": 7316,
      "thered": 7317,
      "excess": 7318,
      "exquis": 7319,
      "dehydr": 7320,
      "raising": 7321,
      "unable": 7322,
      "artist": 7323,
      "mental": 7324,
      "persu": 7325,
      "concept": 7326,
      "nomin": 7327,
      "resource": 7328,
      "shoulders": 7329,
      "jored": 7330,
      "cheques": 7331,
      "spin": 7332,
      "spread": 7333,
      "overcome": 7334,
      "bug": 7335,
      "restroom": 7336,
      "restric": 7337,
      "silent": 7338,
      "ousy": 7339,
      "typed": 7340,
      "manner": 7341,
      "species": 7342,
      "mailed": 7343,
      "majored": 7344,
      "minton": 7345,
      "grind": 7346,
      "happiness": 7347,
      "buyers": 7348,
      "wherever": 7349,
      "interrup": 7350,
      "Chinatown": 7351,
      "Inst": 7352,
      "Insurance": 7353,
      "badminton": 7354,
      "imple": 7355,
      "salaries": 7356,
      "oldest": 7357,
      "ordering": 7358,
      "izes": 7359,
      "surround": 7360,
      "heads": 7361,
      "lists": 7362,
      "Anyhow": 7363,
      "rides": 7364,
      "beautifully": 7365,
      "object": 7366,
      "obtain": 7367,
      "Station": 7368,
      "muscles": 7369,
      "string": 7370,
      "interviewed": 7371,
      "cuts": 7372,
      "201": 7373,
      "banker": 7374,
      "Associ": 7375,
      "bosses": 7376,
      "certi": 7377,
      "availability": 7378,
      "Going": 7379,
      "recipes": 7380,
      "custom": 7381,
      "facing": 7382,
      "factor": 7383,
      "winds": 7384,
      "population": 7385,
      "cliff": 7386,
      "confis": 7387,
      "conflic": 7388,
      "testing": 7389,
      "deposits": 7390,
      "taxes": 7391,
      "reported": 7392,
      "12th": 7393,
      "listened": 7394,
      "pursu": 7395,
      "practicing": 7396,
      "flood": 7397,
      "closely": 7398,
      "attendants": 7399,
      "placing": 7400,
      "uccin": 7401,
      "Jackson": 7402,
      "coverage": 7403,
      "Trans": 7404,
      "applicants": 7405,
      "25th": 7406,
      "leaders": 7407,
      "introverted": 7408,
      "heavily": 7409,
      "slides": 7410,
      "sticker": 7411,
      "technic": 7412,
      "electrical": 7413,
      "Front": 7414,
      "Getting": 7415,
      "answering": 7416,
      "dieting": 7417,
      "sights": 7418,
      "stockholders": 7419,
      "loads": 7420,
      "Secur": 7421,
      "beaches": 7422,
      "squee": 7423,
      "Banking": 7424,
      "dreaming": 7425,
      "jams": 7426,
      "screw": 7427,
      "Carol": 7428,
      "safely": 7429,
      "Administration": 7430,
      "bowling": 7431,
      "expression": 7432,
      "consump": 7433,
      "decorated": 7434,
      "protection": 7435,
      "Accounting": 7436,
      "buttons": 7437,
      "critical": 7438,
      "encouraging": 7439,
      "commerce": 7440,
      "Grandma": 7441,
      "brakes": 7442,
      "printing": 7443,
      "contribution": 7444,
      "Student": 7445,
      "Roberts": 7446,
      "independently": 7447,
      "talented": 7448,
      "Corporate": 7449,
      "knocked": 7450,
      "method": 7451,
      "Termin": 7452,
      "principles": 7453,
      "attracted": 7454,
      "bricks": 7455,
      "contains": 7456,
      "CPR": 7457,
      "Russia": 7458,
      "hiding": 7459,
      "shorter": 7460,
      "embarrassed": 7461,
      "embarrassing": 7462,
      "rugby": 7463,
      "Miller": 7464,
      "district": 7465,
      "costumes": 7466,
      "crafts": 7467,
      "accomplish": 7468,
      "pulse": 7469,
      "Montgomer": 7470,
      "nursing": 7471,
      "bullet": 7472,
      "DEL": 7473,
      "manufacturers": 7474,
      "Twice": 7475,
      "mathematics": 7476,
      "circulation": 7477,
      "fascinating": 7478,
      "leisure": 7479,
      "Honestly": 7480,
      "Queen": 7481,
      "Whenever": 7482,
      "Eliza": 7483,
      "Traveller": 7484,
      "EFL": 7485,
      "evaluation": 7486,
      "eighth": 7487,
      "reimburse": 7488,
      "espresso": 7489,
      "exquisite": 7490,
      "Montgomery": 7491,
      "41": 7492,
      "44": 7493,
      "6th": 7494,
      "626": 7495,
      "8th": 7496,
      "Bal": 7497,
      "Bud": 7498,
      "Cra": 7499,
      "Cath": 7500,
      "Cds": 7501,
      "Dy": 7502,
      "Done": 7503,
      "Deve": 7504,
      "Fu": 7505,
      "Fac": 7506,
      "Field": 7507,
      "Hill": 7508,
      "IQ": 7509,
      "Ice": 7510,
      "Ling": 7511,
      "Money": 7512,
      "Oaks": 7513,
      "Pars": 7514,
      "Pick": 7515,
      "Power": 7516,
      "Ron": 7517,
      "Ret": 7518,
      "Sme": 7519,
      "Shi": 7520,
      "Simp": 7521,
      "Tre": 7522,
      "Tor": 7523,
      "Tea": 7524,
      "Test": 7525,
      "Var": 7526,
      "Wars": 7527,
      "XY": 7528,
      "aco": 7529,
      "awards": 7530,
      "bul": 7531,
      "bble": 7532,
      "bert": 7533,
      "bail": 7534,
      "bothers": 7535,
      "cm": 7536,
      "ease": 7537,
      "fto": 7538,
      "gurt": 7539,
      "hmm": 7540,
      "ius": 7541,
      "iving": 7542,
      "iang": 7543,
      "jin": 7544,
      "lung": 7545,
      "lousy": 7546,
      "mignon": 7547,
      "pong": 7548,
      "satur": 7549,
      "task": 7550,
      "ump": 7551,
      "vest": 7552,
      "yen": 7553,
      "zers": 7554,
      "inic": 7555,
      "insu": 7556,
      "inum": 7557,
      "infl": 7558,
      "reject": 7559,
      "anmen": 7560,
      "thetic": 7561,
      "attorney": 7562,
      "onion": 7563,
      "lls": 7564,
      "oring": 7565,
      "itiner": 7566,
      "semi": 7567,
      "stable": 7568,
      "stiff": 7569,
      "stadium": 7570,
      "lefto": 7571,
      "hah": 7572,
      "anda": 7573,
      "oots": 7574,
      "ches": 7575,
      "dom": 7576,
      "arer": 7577,
      "outlet": 7578,
      "timing": 7579,
      "abase": 7580,
      "absence": 7581,
      "actor": 7582,
      "accent": 7583,
      "accu": 7584,
      "adult": 7585,
      "irrevocable": 7586,
      "ndid": 7587,
      "shu": 7588,
      "plendid": 7589,
      "peak": 7590,
      "somehow": 7591,
      "Through": 7592,
      "fel": 7593,
      "agrees": 7594,
      "seeking": 7595,
      "hilar": 7596,
      "quiz": 7597,
      "ulty": 7598,
      "ulpt": 7599,
      "gel": 7600,
      "blew": 7601,
      "ckily": 7602,
      "ilty": 7603,
      "helmet": 7604,
      "amend": 7605,
      "components": 7606,
      "itecture": 7607,
      "newcomer": 7608,
      "cheat": 7609,
      "spit": 7610,
      "spray": 7611,
      "Island": 7612,
      "pray": 7613,
      "owned": 7614,
      "comments": 7615,
      "fox": 7616,
      "fold": 7617,
      "Letter": 7618,
      "clinic": 7619,
      "cipl": 7620,
      "gues": 7621,
      "guilty": 7622,
      "assess": 7623,
      "wellery": 7624,
      "Chicken": 7625,
      "brake": 7626,
      "stomac": 7627,
      "saus": 7628,
      "uded": 7629,
      "margin": 7630,
      "dim": 7631,
      "blouses": 7632,
      "homeless": 7633,
      "Except": 7634,
      "nerve": 7635,
      "disgust": 7636,
      "correspond": 7637,
      "dragon": 7638,
      "lighting": 7639,
      "Bell": 7640,
      "bookshop": 7641,
      "ggle": 7642,
      "dolls": 7643,
      "visitor": 7644,
      "suppor": 7645,
      "cleared": 7646,
      "dying": 7647,
      "version": 7648,
      "listing": 7649,
      "parent": 7650,
      "content": 7651,
      "signal": 7652,
      "chop": 7653,
      "chores": 7654,
      "specials": 7655,
      "Forbidden": 7656,
      "Looking": 7657,
      "realistic": 7658,
      "curry": 7659,
      "ballot": 7660,
      "Whole": 7661,
      "auction": 7662,
      "interviewers": 7663,
      "attached": 7664,
      "507": 7665,
      "prime": 7666,
      "primary": 7667,
      "suitcases": 7668,
      "dealer": 7669,
      "warn": 7670,
      "News": 7671,
      "Gosh": 7672,
      "transmission": 7673,
      "cram": 7674,
      "cashmere": 7675,
      "packaging": 7676,
      "popcorn": 7677,
      "tourists": 7678,
      "identity": 7679,
      "depositing": 7680,
      "reporting": 7681,
      "123": 7682,
      "seventh": 7683,
      "scheme": 7684,
      "Mei": 7685,
      "wheat": 7686,
      "purple": 7687,
      "architecture": 7688,
      "dishonest": 7689,
      "flour": 7690,
      "cooler": 7691,
      "pancakes": 7692,
      "media": 7693,
      "instit": 7694,
      "2008": 7695,
      "magic": 7696,
      "drawing": 7697,
      "grap": 7698,
      "grapes": 7699,
      "sculpt": 7700,
      "tificial": 7701,
      "ificent": 7702,
      "varies": 7703,
      "balanced": 7704,
      "necessarily": 7705,
      "performances": 7706,
      "flyer": 7707,
      "grandpa": 7708,
      "sighted": 7709,
      "Cheques": 7710,
      "bloody": 7711,
      "loaded": 7712,
      "charging": 7713,
      "Luckily": 7714,
      "quitting": 7715,
      "increases": 7716,
      "industries": 7717,
      "fortunate": 7718,
      "pulling": 7719,
      "taller": 7720,
      "supporting": 7721,
      "fundra": 7722,
      "Foster": 7723,
      "Human": 7724,
      "inspect": 7725,
      "castle": 7726,
      "Conne": 7727,
      "instructor": 7728,
      "instruments": 7729,
      "experiencing": 7730,
      "Services": 7731,
      "graphic": 7732,
      "circle": 7733,
      "polluted": 7734,
      "achievements": 7735,
      "bellboy": 7736,
      "Canadian": 7737,
      "tube": 7738,
      "repairing": 7739,
      "Clint": 7740,
      "audi": 7741,
      "audition": 7742,
      "Moreover": 7743,
      "rarely": 7744,
      "caffe": 7745,
      "chairs": 7746,
      "motiv": 7747,
      "ministr": 7748,
      "authority": 7749,
      "database": 7750,
      "inches": 7751,
      "gentleman": 7752,
      "porterhouse": 7753,
      "brushes": 7754,
      "electronics": 7755,
      "frankly": 7756,
      "platinum": 7757,
      "leadership": 7758,
      "connecting": 7759,
      "dormi": 7760,
      "cancellation": 7761,
      "conclus": 7762,
      "automobile": 7763,
      "catalogues": 7764,
      "principle": 7765,
      "boost": 7766,
      "boots": 7767,
      "www": 7768,
      "shifts": 7769,
      "explore": 7770,
      "stealing": 7771,
      "enterprises": 7772,
      "suffering": 7773,
      "revol": 7774,
      "pilgri": 7775,
      "Marketing": 7776,
      "committee": 7777,
      "nutrition": 7778,
      "Langu": 7779,
      "frightened": 7780,
      "costume": 7781,
      "journalism": 7782,
      "remittance": 7783,
      "mechanical": 7784,
      "FOB": 7785,
      "Import": 7786,
      "destroyed": 7787,
      "investigation": 7788,
      "envelopes": 7789,
      "etime": 7790,
      "diplo": 7791,
      "benefici": 7792,
      "allergic": 7793,
      "predictable": 7794,
      "Desk": 7795,
      "Kitty": 7796,
      "demonstr": 7797,
      "relatively": 7798,
      "bacon": 7799,
      "pharmacy": 7800,
      "tidy": 7801,
      "summers": 7802,
      "fiancee": 7803,
      "distribut": 7804,
      "aerobics": 7805,
      "accurate": 7806,
      "Christian": 7807,
      "philosophy": 7808,
      "pamphlet": 7809,
      "bracelet": 7810,
      "significant": 7811,
      "continuous": 7812,
      "Tonight": 7813,
      "dictionary": 7814,
      "magnificent": 7815,
      "pronunciation": 7816,
      "extroverted": 7817,
      "Broadway": 7818,
      "dehydrated": 7819,
      "uccino": 7820,
      "Elizabeth": 7821,
      "Develo": 7822,
      "Parsons": 7823,
      "XYZ": 7824,
      "stomacha": 7825,
      "05": 7826,
      "5000": 7827,
      "850": 7828,
      "Award": 7829,
      "ASA": 7830,
      "Bay": 7831,
      "Bot": 7832,
      "Best": 7833,
      "Bush": 7834,
      "CA": 7835,
      "Cut": 7836,
      "Clo": 7837,
      "Cel": 7838,
      "Catherine": 7839,
      "DJ": 7840,
      "Far": 7841,
      "Friend": 7842,
      "Fix": 7843,
      "Gal": 7844,
      "Gone": 7845,
      "Hans": 7846,
      "Hallow": 7847,
      "Hah": 7848,
      "Jose": 7849,
      "Jef": 7850,
      "Kathy": 7851,
      "Lt": 7852,
      "Mat": 7853,
      "Ow": 7854,
      "Old": 7855,
      "Ple": 7856,
      "Qing": 7857,
      "Ri": 7858,
      "Ran": 7859,
      "Run": 7860,
      "Sign": 7861,
      "Small": 7862,
      "Ugh": 7863,
      "UFO": 7864,
      "Vis": 7865,
      "Woo": 7866,
      "awhile": 7867,
      "bind": 7868,
      "baked": 7869,
      "cke": 7870,
      "cise": 7871,
      "dine": 7872,
      "dity": 7873,
      "euro": 7874,
      "fting": 7875,
      "fau": 7876,
      "gig": 7877,
      "ggl": 7878,
      "galler": 7879,
      "jar": 7880,
      "kong": 7881,
      "mally": 7882,
      "mount": 7883,
      "nity": 7884,
      "native": 7885,
      "oid": 7886,
      "pant": 7887,
      "pans": 7888,
      "rac": 7889,
      "rising": 7890,
      "rushed": 7891,
      "scan": 7892,
      "sake": 7893,
      "scent": 7894,
      "wh": 7895,
      "wings": 7896,
      "wagon": 7897,
      "zhen": 7898,
      "tha": 7899,
      "thony": 7900,
      "infect": 7901,
      "inexpensive": 7902,
      "inju": 7903,
      "repay": 7904,
      "reunion": 7905,
      "atmeal": 7906,
      "ona": 7907,
      "tori": 7908,
      "heel": 7909,
      "vegg": 7910,
      "semb": 7911,
      "sters": 7912,
      "hack": 7913,
      "ensils": 7914,
      "forbidden": 7915,
      "ican": 7916,
      "icket": 7917,
      "associ": 7918,
      "assets": 7919,
      "weap": 7920,
      "soms": 7921,
      "socks": 7922,
      "liar": 7923,
      "chili": 7924,
      "chub": 7925,
      "utensils": 7926,
      "coal": 7927,
      "cosmo": 7928,
      "acti": 7929,
      "acqu": 7930,
      "administr": 7931,
      "susp": 7932,
      "shining": 7933,
      "pean": 7934,
      "peas": 7935,
      "daytime": 7936,
      "female": 7937,
      "ague": 7938,
      "agger": 7939,
      "tex": 7940,
      "tears": 7941,
      "exotic": 7942,
      "exagger": 7943,
      "ppery": 7944,
      "ppuccino": 7945,
      "una": 7946,
      "unnecessary": 7947,
      "perks": 7948,
      "conserve": 7949,
      "convince": 7950,
      "needing": 7951,
      "needles": 7952,
      "nover": 7953,
      "illness": 7954,
      "ureau": 7955,
      "poet": 7956,
      "comedies": 7957,
      "reschedule": 7958,
      "tray": 7959,
      "chew": 7960,
      "chemical": 7961,
      "spons": 7962,
      "bothered": 7963,
      "buried": 7964,
      "bulence": 7965,
      "prefers": 7966,
      "roommates": 7967,
      "mango": 7968,
      "manual": 7969,
      "cia": 7970,
      "counts": 7971,
      "aves": 7972,
      "maps": 7973,
      "wondered": 7974,
      "sailing": 7975,
      "kindly": 7976,
      "kindness": 7977,
      "uding": 7978,
      "caring": 7979,
      "interior": 7980,
      "dime": 7981,
      "rented": 7982,
      "Vegas": 7983,
      "Exchange": 7984,
      "Export": 7985,
      "nerves": 7986,
      "disappear": 7987,
      "discipl": 7988,
      "hardcover": 7989,
      "phr": 7990,
      "Anthony": 7991,
      "toner": 7992,
      "lighter": 7993,
      "Cope": 7994,
      "shock": 7995,
      "Becky": 7996,
      "planes": 7997,
      "studio": 7998,
      "cused": 7999,
      "ruined": 8000,
      "lics": 8001,
      "licence": 8002,
      "sette": 8003,
      "izz": 8004,
      "mature": 8005,
      "babies": 8006,
      "shade": 8007,
      "sings": 8008,
      "singsong": 8009,
      "productive": 8010,
      "lively": 8011,
      "filed": 8012,
      "steep": 8013,
      "roughly": 8014,
      "funeral": 8015,
      "broc": 8016,
      "agreeable": 8017,
      "jewellery": 8018,
      "informal": 8019,
      "curb": 8020,
      "missions": 8021,
      "movements": 8022,
      "Stand": 8023,
      "Stone": 8024,
      "muscle": 8025,
      "beings": 8026,
      "bankrupt": 8027,
      "pub": 8028,
      "examples": 8029,
      "passbook": 8030,
      "parked": 8031,
      "values": 8032,
      "latte": 8033,
      "crab": 8034,
      "shorts": 8035,
      "faces": 8036,
      "consist": 8037,
      "Shan": 8038,
      "tested": 8039,
      "basics": 8040,
      "1234": 8041,
      "Firstly": 8042,
      "sched": 8043,
      "metres": 8044,
      "paste": 8045,
      "majoring": 8046,
      "Roy": 8047,
      "engagement": 8048,
      "virt": 8049,
      "steady": 8050,
      "treats": 8051,
      "treating": 8052,
      "tempting": 8053,
      "bathtub": 8054,
      "ification": 8055,
      "medicines": 8056,
      "refused": 8057,
      "horses": 8058,
      "searching": 8059,
      "commut": 8060,
      "sticks": 8061,
      "winner": 8062,
      "queue": 8063,
      "burg": 8064,
      "burnt": 8065,
      "accidents": 8066,
      "continental": 8067,
      "millan": 8068,
      "occur": 8069,
      "lectures": 8070,
      "increasing": 8071,
      "investing": 8072,
      "invested": 8073,
      "Danny": 8074,
      "speeding": 8075,
      "Loans": 8076,
      "snowing": 8077,
      "apore": 8078,
      "industrial": 8079,
      "appears": 8080,
      "throwing": 8081,
      "desserts": 8082,
      "snakes": 8083,
      "calories": 8084,
      "Hua": 8085,
      "memories": 8086,
      "Suzhou": 8087,
      "turnover": 8088,
      "purchased": 8089,
      "cultures": 8090,
      "knowledgments": 8091,
      "urgently": 8092,
      "scenes": 8093,
      "scenic": 8094,
      "expressions": 8095,
      "instrument": 8096,
      "deeply": 8097,
      "yogurt": 8098,
      "consumer": 8099,
      "14th": 8100,
      "Macmillan": 8101,
      "promising": 8102,
      "equipments": 8103,
      "pushing": 8104,
      "originally": 8105,
      "ethnic": 8106,
      "tutor": 8107,
      "limits": 8108,
      "quette": 8109,
      "crossing": 8110,
      "bargaining": 8111,
      "Normally": 8112,
      "venues": 8113,
      "requested": 8114,
      "violin": 8115,
      "volume": 8116,
      "Feel": 8117,
      "investors": 8118,
      "cousins": 8119,
      "browse": 8120,
      "dumped": 8121,
      "galax": 8122,
      "ivity": 8123,
      "spectac": 8124,
      "subscribe": 8125,
      "McDonald": 8126,
      "Singapore": 8127,
      "adopt": 8128,
      "gentlemen": 8129,
      "MasterCard": 8130,
      "commercials": 8131,
      "Terrific": 8132,
      "complimentary": 8133,
      "eyel": 8134,
      "cros": 8135,
      "napkins": 8136,
      "frustrated": 8137,
      "alternative": 8138,
      "biography": 8139,
      "Brazili": 8140,
      "Counter": 8141,
      "punishment": 8142,
      "Commer": 8143,
      "crisp": 8144,
      "determine": 8145,
      "Geez": 8146,
      "Regular": 8147,
      "mileage": 8148,
      "Nanjing": 8149,
      "murder": 8150,
      "relieved": 8151,
      "neighbourhood": 8152,
      "Consumer": 8153,
      "Malay": 8154,
      "techniques": 8155,
      "aspects": 8156,
      "resistant": 8157,
      "Relax": 8158,
      "cavity": 8159,
      "initiative": 8160,
      "Beautif": 8161,
      "Daily": 8162,
      "seminar": 8163,
      "construction": 8164,
      "cubicle": 8165,
      "victim": 8166,
      "remote": 8167,
      "Yoga": 8168,
      "eligi": 8169,
      "interpreter": 8170,
      "substanti": 8171,
      "fuss": 8172,
      "orientation": 8173,
      "blossoms": 8174,
      "Publ": 8175,
      "foul": 8176,
      "rehensive": 8177,
      "rapidly": 8178,
      "Cambridge": 8179,
      "Irish": 8180,
      "bouquet": 8181,
      "flesh": 8182,
      "consumption": 8183,
      "caffeine": 8184,
      "Halloween": 8185,
      "Joseph": 8186,
      "Ltd": 8187,
      "faucet": 8188,
      "galleries": 8189,
      "130": 8190,
      "260": 8191,
      "31": 8192,
      "350": 8193,
      "46": 8194,
      "57": 8195,
      "59": 8196,
      "Aright": 8197,
      "Agree": 8198,
      "BE": 8199,
      "Bon": 8200,
      "Bing": 8201,
      "Band": 8202,
      "Ce": 8203,
      "Cu": 8204,
      "Cou": 8205,
      "Clive": 8206,
      "CLA": 8207,
      "Del": 8208,
      "Eat": 8209,
      "Ether": 8210,
      "Fall": 8211,
      "Food": 8212,
      "Flo": 8213,
      "Fort": 8214,
      "Fund": 8215,
      "Greg": 8216,
      "Hm": 8217,
      "Jake": 8218,
      "Jaco": 8219,
      "Line": 8220,
      "Mall": 8221,
      "Name": 8222,
      "Ori": 8223,
      "Pri": 8224,
      "Psy": 8225,
      "Pod": 8226,
      "Sony": 8227,
      "Tot": 8228,
      "UCLA": 8229,
      "Vi": 8230,
      "Ven": 8231,
      "Win": 8232,
      "Xi": 8233,
      "blast": 8234,
      "bang": 8235,
      "barri": 8236,
      "bamb": 8237,
      "cation": 8238,
      "deduc": 8239,
      "evalu": 8240,
      "emot": 8241,
      "fes": 8242,
      "fountain": 8243,
      "gan": 8244,
      "greet": 8245,
      "hide": 8246,
      "hint": 8247,
      "hits": 8248,
      "kung": 8249,
      "lam": 8250,
      "liness": 8251,
      "lakes": 8252,
      "lted": 8253,
      "nest": 8254,
      "oak": 8255,
      "oily": 8256,
      "ointing": 8257,
      "oatmeal": 8258,
      "pment": 8259,
      "pine": 8260,
      "pend": 8261,
      "pushed": 8262,
      "phew": 8263,
      "rab": 8264,
      "rally": 8265,
      "rack": 8266,
      "rhy": 8267,
      "slic": 8268,
      "tread": 8269,
      "tune": 8270,
      "vast": 8271,
      "vine": 8272,
      "vital": 8273,
      "wis": 8274,
      "waff": 8275,
      "xing": 8276,
      "xim": 8277,
      "yalty": 8278,
      "zo": 8279,
      "zart": 8280,
      "ouched": 8281,
      "intake": 8282,
      "react": 8283,
      "recall": 8284,
      "reverse": 8285,
      "anny": 8286,
      "anxious": 8287,
      "yout": 8288,
      "atible": 8289,
      "onions": 8290,
      "toy": 8291,
      "toler": 8292,
      "erce": 8293,
      "orang": 8294,
      "merely": 8295,
      "iso": 8296,
      "esy": 8297,
      "healed": 8298,
      "sem": 8299,
      "sections": 8300,
      "stal": 8301,
      "stall": 8302,
      "stab": 8303,
      "arbit": 8304,
      "artificial": 8305,
      "enties": 8306,
      "beli": 8307,
      "bever": 8308,
      "hats": 8309,
      "ooke": 8310,
      "soph": 8311,
      "liking": 8312,
      "ching": 8313,
      "domin": 8314,
      "nephew": 8315,
      "outline": 8316,
      "tili": 8317,
      "accompany": 8318,
      "accusto": 8319,
      "admitted": 8320,
      "Youth": 8321,
      "nowhere": 8322,
      "sus": 8323,
      "sucks": 8324,
      "ami": 8325,
      "amer": 8326,
      "shred": 8327,
      "shanghai": 8328,
      "feit": 8329,
      "usive": 8330,
      "users": 8331,
      "loyalty": 8332,
      "mph": 8333,
      "hopes": 8334,
      "extr": 8335,
      "deck": 8336,
      "wanting": 8337,
      "unic": 8338,
      "unks": 8339,
      "unbear": 8340,
      "unfurnished": 8341,
      "unlimited": 8342,
      "upgrade": 8343,
      "persever": 8344,
      "mulate": 8345,
      "consign": 8346,
      "uls": 8347,
      "poss": 8348,
      "ctic": 8349,
      "blend": 8350,
      "elbow": 8351,
      "affection": 8352,
      "residence": 8353,
      "compatible": 8354,
      "trot": 8355,
      "spr": 8356,
      "spite": 8357,
      "bodies": 8358,
      "partners": 8359,
      "prot": 8360,
      "bugs": 8361,
      "preference": 8362,
      "actress": 8363,
      "clam": 8364,
      "clue": 8365,
      "eping": 8366,
      "episo": 8367,
      "sheer": 8368,
      "backs": 8369,
      "rows": 8370,
      "appointing": 8371,
      "grat": 8372,
      "sition": 8373,
      "finds": 8374,
      "osed": 8375,
      "buys": 8376,
      "penny": 8377,
      "downs": 8378,
      "beforehand": 8379,
      "bloom": 8380,
      "blown": 8381,
      "blesome": 8382,
      "homes": 8383,
      "Recent": 8384,
      "discover": 8385,
      "disadvantages": 8386,
      "corrid": 8387,
      "minds": 8388,
      "yearly": 8389,
      "launch": 8390,
      "layout": 8391,
      "underwear": 8392,
      "Instead": 8393,
      "showers": 8394,
      "tonic": 8395,
      "Comm": 8396,
      "shopped": 8397,
      "shocked": 8398,
      "Beeth": 8399,
      "housekeeping": 8400,
      "hottest": 8401,
      "fertili": 8402,
      "earned": 8403,
      "wonderfully": 8404,
      "viewing": 8405,
      "enjoys": 8406,
      "decade": 8407,
      "shares": 8408,
      "skip": 8409,
      "producing": 8410,
      "steel": 8411,
      "dynasty": 8412,
      "portable": 8413,
      "receiver": 8414,
      "receiving": 8415,
      "contents": 8416,
      "informative": 8417,
      "curfew": 8418,
      "Move": 8419,
      "Mozart": 8420,
      "remembering": 8421,
      "waterproof": 8422,
      "Need": 8423,
      "thirties": 8424,
      "smoked": 8425,
      "terrified": 8426,
      "weatherman": 8427,
      "filthy": 8428,
      "thesis": 8429,
      "camcor": 8430,
      "aire": 8431,
      "genius": 8432,
      "freel": 8433,
      "crash": 8434,
      "shorten": 8435,
      "salesperson": 8436,
      "keyboard": 8437,
      "tourism": 8438,
      "consists": 8439,
      "beginner": 8440,
      "beginners": 8441,
      "entering": 8442,
      "lantern": 8443,
      "1500": 8444,
      "extended": 8445,
      "bara": 8446,
      "boxing": 8447,
      "Temple": 8448,
      "biking": 8449,
      "poster": 8450,
      "insight": 8451,
      "Saturdays": 8452,
      "Mean": 8453,
      "majority": 8454,
      "porcel": 8455,
      "portions": 8456,
      "floods": 8457,
      "eighteen": 8458,
      "petrol": 8459,
      "fixing": 8460,
      "dropping": 8461,
      "dao": 8462,
      "applications": 8463,
      "horos": 8464,
      "ahoo": 8465,
      "damages": 8466,
      "competence": 8467,
      "401": 8468,
      "gained": 8469,
      "burgl": 8470,
      "Wangfu": 8471,
      "starter": 8472,
      "tivity": 8473,
      "Granger": 8474,
      "approxim": 8475,
      "Stevens": 8476,
      "writers": 8477,
      "nonsense": 8478,
      "ugly": 8479,
      "Word": 8480,
      "capability": 8481,
      "radi": 8482,
      "darker": 8483,
      "ounce": 8484,
      "imagined": 8485,
      "valent": 8486,
      "turkey": 8487,
      "turbulence": 8488,
      "standards": 8489,
      "swing": 8490,
      "exhibitions": 8491,
      "Correct": 8492,
      "declar": 8493,
      "Arden": 8494,
      "Barbara": 8495,
      "Dragon": 8496,
      "protein": 8497,
      "struck": 8498,
      "repairs": 8499,
      "directors": 8500,
      "measures": 8501,
      "Clark": 8502,
      "cruel": 8503,
      "crucial": 8504,
      "kicking": 8505,
      "golden": 8506,
      "shipped": 8507,
      "breathtaking": 8508,
      "palace": 8509,
      "embro": 8510,
      "roasted": 8511,
      "demanding": 8512,
      "assignments": 8513,
      "Kobe": 8514,
      "alcoholic": 8515,
      "catalog": 8516,
      "Buy": 8517,
      "jackets": 8518,
      "isticated": 8519,
      "vanilla": 8520,
      "experts": 8521,
      "brows": 8522,
      "fools": 8523,
      "remains": 8524,
      "butterfly": 8525,
      "butterflies": 8526,
      "affected": 8527,
      "failure": 8528,
      "statue": 8529,
      "qualification": 8530,
      "briefcase": 8531,
      "quotations": 8532,
      "conclude": 8533,
      "buns": 8534,
      "belongings": 8535,
      "cheerful": 8536,
      "occupied": 8537,
      "tomatoes": 8538,
      "breasts": 8539,
      "strawberries": 8540,
      "Mountains": 8541,
      "Joanne": 8542,
      "defense": 8543,
      "landscapes": 8544,
      "nutritious": 8545,
      "accommodate": 8546,
      "troublesome": 8547,
      "mutual": 8548,
      "lemonade": 8549,
      "Karl": 8550,
      "aborate": 8551,
      "Awesome": 8552,
      "Fifth": 8553,
      "opard": 8554,
      "etiquette": 8555,
      "geography": 8556,
      "bumper": 8557,
      "beneficial": 8558,
      "allergies": 8559,
      "Malia": 8560,
      "equipped": 8561,
      "pouring": 8562,
      "objective": 8563,
      "technique": 8564,
      "Ruth": 8565,
      "indication": 8566,
      "puzzles": 8567,
      "calculate": 8568,
      "Disneyland": 8569,
      "knees": 8570,
      "released": 8571,
      "mushrooms": 8572,
      "scientists": 8573,
      "Simon": 8574,
      "criminals": 8575,
      "Robinson": 8576,
      "category": 8577,
      "Nathan": 8578,
      "symbol": 8579,
      "Doris": 8580,
      "dreadful": 8581,
      "handicapped": 8582,
      "chapter": 8583,
      "Earth": 8584,
      "Graham": 8585,
      "phoned": 8586,
      "accommodation": 8587,
      "Sweet": 8588,
      "ketchup": 8589,
      "controls": 8590,
      "recruit": 8591,
      "assume": 8592,
      "implement": 8593,
      "certified": 8594,
      "Fields": 8595,
      "saturday": 8596,
      "correspondence": 8597,
      "Clinton": 8598,
      "dormitory": 8599,
      "Development": 8600,
      "stomachache": 8601,
      "Friendship": 8602,
      "Fixed": 8603,
      "Jeff": 8604,
      "Qingdao": 8605,
      "veggies": 8606,
      "administrative": 8607,
      "Copeland": 8608,
      "Brazilian": 8609,
      "eligible": 8610,
      "substantial": 8611,
      "Agreement": 8612,
      "Bingo": 8613,
      "Ethernet": 8614,
      "deducti": 8615,
      "rabbit": 8616,
      "treadmill": 8617,
      "oranges": 8618,
      "sophisticated": 8619,
      "accustomed": 8620,
      "possess": 8621,
      "Recently": 8622,
      "corridor": 8623,
      "Beethoven": 8624,
      "porcelain": 8625,
      "Wangfujing": 8626,
      "43": 8627,
      "76": 8628,
      "Ave": 8629,
      "Ass": 8630,
      "Amand": 8631,
      "BB": 8632,
      "Bel": 8633,
      "Bark": 8634,
      "Bridge": 8635,
      "Bachelor": 8636,
      "CR": 8637,
      "Cy": 8638,
      "Catch": 8639,
      "Dou": 8640,
      "Den": 8641,
      "Det": 8642,
      "Dire": 8643,
      "EQ": 8644,
      "Eif": 8645,
      "Emp": 8646,
      "Emb": 8647,
      "Egg": 8648,
      "Employment": 8649,
      "Fool": 8650,
      "Foot": 8651,
      "Han": 8652,
      "Hank": 8653,
      "Horn": 8654,
      "Job": 8655,
      "Krist": 8656,
      "Lou": 8657,
      "Lor": 8658,
      "Les": 8659,
      "Mand": 8660,
      "Might": 8661,
      "Making": 8662,
      "Matt": 8663,
      "MBA": 8664,
      "Near": 8665,
      "Ox": 8666,
      "PR": 8667,
      "Ph": 8668,
      "Pine": 8669,
      "Port": 8670,
      "Rese": 8671,
      "Send": 8672,
      "Sil": 8673,
      "Sleep": 8674,
      "Tour": 8675,
      "Tele": 8676,
      "bis": 8677,
      "bones": 8678,
      "blocked": 8679,
      "cs": 8680,
      "ctory": 8681,
      "culations": 8682,
      "dha": 8683,
      "ethe": 8684,
      "eBay": 8685,
      "fal": 8686,
      "gle": 8687,
      "goo": 8688,
      "gloves": 8689,
      "iers": 8690,
      "ka": 8691,
      "ko": 8692,
      "kar": 8693,
      "kward": 8694,
      "kok": 8695,
      "kespe": 8696,
      "kni": 8697,
      "nations": 8698,
      "ology": 8699,
      "pit": 8700,
      "pint": 8701,
      "pile": 8702,
      "praise": 8703,
      "pizz": 8704,
      "rat": 8705,
      "rust": 8706,
      "sate": 8707,
      "scold": 8708,
      "tent": 8709,
      "tling": 8710,
      "ume": 8711,
      "uine": 8712,
      "vili": 8713,
      "wart": 8714,
      "thie": 8715,
      "thai": 8716,
      "thumb": 8717,
      "ino": 8718,
      "inct": 8719,
      "insur": 8720,
      "rer": 8721,
      "repa": 8722,
      "retreat": 8723,
      "resolve": 8724,
      "redecorating": 8725,
      "recession": 8726,
      "anie": 8727,
      "thent": 8728,
      "youth": 8729,
      "onica": 8730,
      "token": 8731,
      "eration": 8732,
      "llite": 8733,
      "ingu": 8734,
      "issa": 8735,
      "itz": 8736,
      "itary": 8737,
      "itations": 8738,
      "heater": 8739,
      "veal": 8740,
      "vend": 8741,
      "stream": 8742,
      "hairst": 8743,
      "enix": 8744,
      "encies": 8745,
      "bee": 8746,
      "hates": 8747,
      "icked": 8748,
      "icians": 8749,
      "asm": 8750,
      "aside": 8751,
      "asmine": 8752,
      "ales": 8753,
      "editing": 8754,
      "wered": 8755,
      "soil": 8756,
      "lied": 8757,
      "limo": 8758,
      "doc": 8759,
      "utility": 8760,
      "idio": 8761,
      "rig": 8762,
      "robot": 8763,
      "abstr": 8764,
      "cans": 8765,
      "accor": 8766,
      "irrit": 8767,
      "Theater": 8768,
      "anyways": 8769,
      "peppers": 8770,
      "Thousand": 8771,
      "daylight": 8772,
      "agric": 8773,
      "user": 8774,
      "lod": 8775,
      "worries": 8776,
      "teas": 8777,
      "mp3": 8778,
      "mp4": 8779,
      "notify": 8780,
      "Head": 8781,
      "butt": 8782,
      "hoped": 8783,
      "deaf": 8784,
      "pros": 8785,
      "uncture": 8786,
      "update": 8787,
      "Nova": 8788,
      "conferences": 8789,
      "needle": 8790,
      "quing": 8791,
      "inee": 8792,
      "ainted": 8793,
      "essay": 8794,
      "akery": 8795,
      "elaborate": 8796,
      "resto": 8797,
      "reshed": 8798,
      "compart": 8799,
      "itement": 8800,
      "offs": 8801,
      "tram": 8802,
      "chequing": 8803,
      "spices": 8804,
      "spaces": 8805,
      "makeup": 8806,
      "mba": 8807,
      "buck": 8808,
      "comment": 8809,
      "folder": 8810,
      "istry": 8811,
      "cla": 8812,
      "cloud": 8813,
      "civili": 8814,
      "cape": 8815,
      "cappuccino": 8816,
      "Myra": 8817,
      "wonders": 8818,
      "sitter": 8819,
      "xture": 8820,
      "meets": 8821,
      "answered": 8822,
      "merous": 8823,
      "cloths": 8824,
      "wrink": 8825,
      "division": 8826,
      "blon": 8827,
      "impol": 8828,
      "nicely": 8829,
      "renting": 8830,
      "forming": 8831,
      "angle": 8832,
      "Reading": 8833,
      "disappointing": 8834,
      "cords": 8835,
      "drank": 8836,
      "Color": 8837,
      "Beam": 8838,
      "imate": 8839,
      "elsewhere": 8840,
      "pajam": 8841,
      "handled": 8842,
      "hotter": 8843,
      "earning": 8844,
      "smiling": 8845,
      "views": 8846,
      "desert": 8847,
      "tical": 8848,
      "enjoyable": 8849,
      "shaped": 8850,
      "skate": 8851,
      "produces": 8852,
      "fierce": 8853,
      "101": 8854,
      "1050": 8855,
      "Anyone": 8856,
      "invitations": 8857,
      "freeway": 8858,
      "freezer": 8859,
      "importantly": 8860,
      "runner": 8861,
      "sends": 8862,
      "ridges": 8863,
      "pension": 8864,
      "ulture": 8865,
      "farming": 8866,
      "Moder": 8867,
      "Start": 8868,
      "Whose": 8869,
      "authent": 8870,
      "wore": 8871,
      "20s": 8872,
      "picky": 8873,
      "begun": 8874,
      "curious": 8875,
      "doctors": 8876,
      "managerial": 8877,
      "genuine": 8878,
      "freck": 8879,
      "wishes": 8880,
      "excitement": 8881,
      "translation": 8882,
      "crown": 8883,
      "holder": 8884,
      "pond": 8885,
      "confess": 8886,
      "drawn": 8887,
      "Abby": 8888,
      "detached": 8889,
      "Dean": 8890,
      "stub": 8891,
      "awkward": 8892,
      "programming": 8893,
      "profits": 8894,
      "nationality": 8895,
      "cassette": 8896,
      "bikin": 8897,
      "facts": 8898,
      "allowing": 8899,
      "postage": 8900,
      "metro": 8901,
      "Brooke": 8902,
      "Rock": 8903,
      "Ross": 8904,
      "dishwasher": 8905,
      "finishing": 8906,
      "faulty": 8907,
      "2002": 8908,
      "drawer": 8909,
      "Bobby": 8910,
      "worthy": 8911,
      "ternal": 8912,
      "Ahh": 8913,
      "Tracy": 8914,
      "photograp": 8915,
      "refreshed": 8916,
      "Home": 8917,
      "lenses": 8918,
      "berry": 8919,
      "berty": 8920,
      "publication": 8921,
      "Boat": 8922,
      "Board": 8923,
      "Boys": 8924,
      "performed": 8925,
      "strongly": 8926,
      "contacting": 8927,
      "slippery": 8928,
      "celona": 8929,
      "counterfeit": 8930,
      "policeman": 8931,
      "patent": 8932,
      "burst": 8933,
      "rolling": 8934,
      "grandchildren": 8935,
      "daughters": 8936,
      "flush": 8937,
      "staring": 8938,
      "starters": 8939,
      "retail": 8940,
      "layover": 8941,
      "Secret": 8942,
      "drying": 8943,
      "sweetie": 8944,
      "mistry": 8945,
      "candle": 8946,
      "periodic": 8947,
      "apology": 8948,
      "Jenn": 8949,
      "complained": 8950,
      "139": 8951,
      "flattering": 8952,
      "calculations": 8953,
      "Fox": 8954,
      "Euros": 8955,
      "Suzy": 8956,
      "offici": 8957,
      "avoided": 8958,
      "Paula": 8959,
      "Mao": 8960,
      "antiques": 8961,
      "fares": 8962,
      "gardening": 8963,
      "creativity": 8964,
      "1739": 8965,
      "declared": 8966,
      "Barcelona": 8967,
      "niest": 8968,
      "pedal": 8969,
      "firmly": 8970,
      "battle": 8971,
      "batteries": 8972,
      "Macy": 8973,
      "Premium": 8974,
      "organizations": 8975,
      "organizational": 8976,
      "communications": 8977,
      "communicating": 8978,
      "strictly": 8979,
      "criter": 8980,
      "carton": 8981,
      "Others": 8982,
      "separately": 8983,
      "embassy": 8984,
      "Frankly": 8985,
      "mulated": 8986,
      "typist": 8987,
      "traveller": 8988,
      "politan": 8989,
      "receptionist": 8990,
      "warehouse": 8991,
      "Charlie": 8992,
      "vehicles": 8993,
      "tariff": 8994,
      "tricky": 8995,
      "lifetime": 8996,
      "Studying": 8997,
      "allergy": 8998,
      "appetizers": 8999,
      "Westerners": 9000,
      "Secondly": 9001,
      "Elvis": 9002,
      "General": 9003,
      "annoy": 9004,
      "Chanel": 9005,
      "strateg": 9006,
      "measurements": 9007,
      "Sixty": 9008,
      "VIP": 9009,
      "pumping": 9010,
      "28th": 9011,
      "risky": 9012,
      "concluded": 9013,
      "broadband": 9014,
      "compensate": 9015,
      "attachment": 9016,
      "arranging": 9017,
      "breasted": 9018,
      "Pete": 9019,
      "snee": 9020,
      "historic": 9021,
      "Melissa": 9022,
      "pitcher": 9023,
      "wrapping": 9024,
      "Joanna": 9025,
      "Operator": 9026,
      "lunar": 9027,
      "Commo": 9028,
      "tower": 9029,
      "conductor": 9030,
      "psychology": 9031,
      "mutton": 9032,
      "whisky": 9033,
      "minibar": 9034,
      "cabinets": 9035,
      "inventory": 9036,
      "humorous": 9037,
      "Fifty": 9038,
      "gathering": 9039,
      "envelope": 9040,
      "thriller": 9041,
      "Madrid": 9042,
      "equivalent": 9043,
      "existing": 9044,
      "priority": 9045,
      "trends": 9046,
      "Berlin": 9047,
      "threatening": 9048,
      "Dollar": 9049,
      "announcement": 9050,
      "Shakespe": 9051,
      "knee": 9052,
      "captain": 9053,
      "scientist": 9054,
      "Bangkok": 9055,
      "Capital": 9056,
      "Little": 9057,
      "keepers": 9058,
      "album": 9059,
      "Larry": 9060,
      "Computer": 9061,
      "bananas": 9062,
      "Custo": 9063,
      "ctives": 9064,
      "slacks": 9065,
      "consumers": 9066,
      "airsickness": 9067,
      "handyman": 9068,
      "Sharon": 9069,
      "citizens": 9070,
      "Reservation": 9071,
      "Digital": 9072,
      "Phoenix": 9073,
      "idiot": 9074,
      "sunday": 9075,
      "Society": 9076,
      "emphasize": 9077,
      "duplicate": 9078,
      "Egypt": 9079,
      "Veronica": 9080,
      "thunderstorms": 9081,
      "nominated": 9082,
      "conflict": 9083,
      "technician": 9084,
      "squeeze": 9085,
      "Terminator": 9086,
      "bulletin": 9087,
      "Buddha": 9088,
      "Catho": 9089,
      "Dynasty": 9090,
      "Return": 9091,
      "Simpson": 9092,
      "Toronto": 9093,
      "itinerary": 9094,
      "hilarious": 9095,
      "amendment": 9096,
      "guessed": 9097,
      "sausages": 9098,
      "disgusting": 9099,
      "conclusion": 9100,
      "beneficiary": 9101,
      "ASAP": 9102,
      "panty": 9103,
      "hackers": 9104,
      "chubby": 9105,
      "crossed": 9106,
      "Malaysia": 9107,
      "Beautiful": 9108,
      "Psycho": 9109,
      "Totally": 9110,
      "pendant": 9111,
      "rhyth": 9112,
      "unbearable": 9113,
      "perseverance": 9114,
      "approximately": 9115,
      "declaration": 9116,
      "Assist": 9117,
      "Amanda": 9118,
      "Eiffel": 9119,
      "Oxford": 9120,
      "Research": 9121,
      "knife": 9122,
      "pizzas": 9123,
      "satellite": 9124,
      "thieves": 9125,
      "repaired": 9126,
      "abstract": 9127,
      "impolite": 9128,
      "Colorado": 9129,
      "pajamas": 9130,
      "authentic": 9131,
      "Shakespeare": 9132,
      "3000": 9133,
      "345": 9134,
      "62": 9135,
      "700": 9136,
      "84": 9137,
      "92": 9138,
      "911": 9139,
      "AP": 9140,
      "Baby": 9141,
      "Cr": 9142,
      "Cathy": 9143,
      "Cathe": 9144,
      "DA": 9145,
      "Dun": 9146,
      "Dong": 9147,
      "Down": 9148,
      "Drop": 9149,
      "ET": 9150,
      "Ever": 9151,
      "Ellen": 9152,
      "Fed": 9153,
      "Find": 9154,
      "Father": 9155,
      "Fancy": 9156,
      "Gor": 9157,
      "Gam": 9158,
      "Gover": 9159,
      "Hou": 9160,
      "Hand": 9161,
      "Haunt": 9162,
      "Ire": 9163,
      "Kent": 9164,
      "Link": 9165,
      "Liz": 9166,
      "Lap": 9167,
      "Lester": 9168,
      "Mob": 9169,
      "Nic": 9170,
      "None": 9171,
      "OM": 9172,
      "Ot": 9173,
      "Orange": 9174,
      "Pare": 9175,
      "Pam": 9176,
      "Pur": 9177,
      "Pame": 9178,
      "Pear": 9179,
      "Pls": 9180,
      "Rice": 9181,
      "Rather": 9182,
      "Randy": 9183,
      "Swi": 9184,
      "Song": 9185,
      "Sher": 9186,
      "Slow": 9187,
      "Silly": 9188,
      "Till": 9189,
      "Vick": 9190,
      "Wy": 9191,
      "Woods": 9192,
      "Yan": 9193,
      "Yet": 9194,
      "Yale": 9195,
      "Zhu": 9196,
      "aineering": 9197,
      "ba": 9198,
      "bake": 9199,
      "bait": 9200,
      "border": 9201,
      "bins": 9202,
      "cater": 9203,
      "dur": 9204,
      "eves": 9205,
      "fake": 9206,
      "gag": 9207,
      "hoo": 9208,
      "ivate": 9209,
      "ibly": 9210,
      "iPod": 9211,
      "ji": 9212,
      "lou": 9213,
      "lind": 9214,
      "lish": 9215,
      "nment": 9216,
      "ological": 9217,
      "osition": 9218,
      "pra": 9219,
      "pite": 9220,
      "pins": 9221,
      "qi": 9222,
      "rics": 9223,
      "slog": 9224,
      "scream": 9225,
      "splendid": 9226,
      "tends": 9227,
      "unt": 9228,
      "uel": 9229,
      "uals": 9230,
      "vial": 9231,
      "wang": 9232,
      "wok": 9233,
      "wages": 9234,
      "waves": 9235,
      "yage": 9236,
      "yahoo": 9237,
      "zi": 9238,
      "zip": 9239,
      "inn": 9240,
      "insp": 9241,
      "inary": 9242,
      "inations": 9243,
      "insert": 9244,
      "redo": 9245,
      "reno": 9246,
      "rets": 9247,
      "reconsider": 9248,
      "recycle": 9249,
      "revenue": 9250,
      "rebound": 9251,
      "recreation": 9252,
      "ancial": 9253,
      "theme": 9254,
      "onent": 9255,
      "tops": 9256,
      "erg": 9257,
      "error": 9258,
      "errand": 9259,
      "lling": 9260,
      "lled": 9261,
      "orna": 9262,
      "megap": 9263,
      "itis": 9264,
      "sear": 9265,
      "seal": 9266,
      "secre": 9267,
      "sels": 9268,
      "stink": 9269,
      "stun": 9270,
      "stile": 9271,
      "aro": 9272,
      "aring": 9273,
      "army": 9274,
      "ander": 9275,
      "ene": 9276,
      "ench": 9277,
      "forks": 9278,
      "asure": 9279,
      "assemb": 9280,
      "alpha": 9281,
      "edit": 9282,
      "wider": 9283,
      "socket": 9284,
      "lip": 9285,
      "lion": 9286,
      "lims": 9287,
      "chi": 9288,
      "dogg": 9289,
      "ares": 9290,
      "coli": 9291,
      "rivers": 9292,
      "rod": 9293,
      "outer": 9294,
      "outlook": 9295,
      "output": 9296,
      "timer": 9297,
      "tiring": 9298,
      "timist": 9299,
      "absolute": 9300,
      "absor": 9301,
      "cann": 9302,
      "canned": 9303,
      "acup": 9304,
      "accel": 9305,
      "acknowledgments": 9306,
      "adding": 9307,
      "adventure": 9308,
      "irable": 9309,
[...]
